<unk>	0
<s>	0
</s>	0
▁के	-3.32595
।	-3.34145
▁में	-3.60914
▁है	-3.65481
,	-3.65986
▁	-4.00786
▁की	-4.07511
▁और	-4.23087
▁से	-4.27801
▁का	-4.27936
▁को	-4.51159
▁हैं	-4.6843
▁एक	-4.74464
▁पर	-4.99973
.	-5.05205
-	-5.15227
▁भी	-5.30756
▁ने	-5.31325
▁किया	-5.31878
▁·	-5.40816
▁यह	-5.43147
▁था	-5.46662
▁लिए	-5.47696
▁इस	-5.5295
▁गया	-5.59892
ों	-5.62473
▁कि	-5.63314
ी	-5.75426
▁जाता	-5.80094
▁जो	-5.81089
▁रूप	-5.82732
▁ही	-5.85318
▁q	-5.90029
▁�	-5.90302
▁कर	-5.91254
▁हो	-5.91398
▁करने	-6.02667
▁तथा	-6.03542
▁नहीं	-6.05252
▁द्वारा	-6.06217
▁या	-6.06965
X	-6.07423
▁थे	-6.08783
▁साथ	-6.10687
▁•	-6.10871
ा	-6.12449
▁भारत	-6.1668
▁होता	-6.21975
▁बाद	-6.26518
▁तक	-6.27973
:	-6.29158
▁"	-6.35315
▁दिया	-6.36024
▁अपने	-6.36482
▁थी	-6.42724
▁हुआ	-6.48126
न	-6.49444
▁कुछ	-6.52655
"	-6.53901
▁जिला	-6.54189
�	-6.58418
▁एवं	-6.59232
▁इसके	-6.59941
▁वे	-6.62438
▁वह	-6.62553
▁|	-6.64094
'	-6.65429
▁नाम	-6.65492
▁जा	-6.65511
▁राज्य	-6.65681
▁समय	-6.71078
▁होती	-6.71522
▁करते	-6.71691
▁हुए	-6.72138
▁तो	-6.72641
▁कई	-6.74271
▁'	-6.76485
▁अन्य	-6.76881
▁अधिक	-6.78997
▁क्षेत्र	-6.79271
▁कारण	-6.8198
े	-6.81986
▁सबसे	-6.83423
▁प्रकार	-6.83915
▁होने	-6.85482
क	-6.8562
▁सकता	-6.85745
▁स्थित	-6.86178
र	-6.89215
▁उनके	-6.89671
▁भारतीय	-6.91339
▁उन्होंने	-6.91603
▁किसी	-6.92942
▁वर्ष	-6.93175
▁जाती	-6.94174
▁वाले	-6.94349
▁बहुत	-6.94693
▁होते	-6.9506
▁करता	-6.95702
ता	-6.96147
▁दो	-6.9719
▁व	-6.9895
ं	-7.00676
▁अपनी	-7.00789
▁कहा	-7.04321
▁पूर्व	-7.04602
▁पहले	-7.04608
▁गए	-7.04884
▁इन	-7.05241
▁हुई	-7.05354
▁जैसे	-7.0648
▁जब	-7.07309
▁ये	-7.08161
▁कम	-7.09271
ल	-7.09614
स	-7.10041
▁/	-7.10924
▁गई	-7.11671
ो	-7.11864
▁न	-7.12817
▁लेकिन	-7.13384
म	-7.13803
▁उन्हें	-7.15346
▁आदि	-7.17759
▁अनुसार	-7.17979
▁भाषा	-7.19503
▁इसका	-7.2105
▁प्राप्त	-7.21797
▁रहे	-7.21882
▁उत्तर	-7.22171
▁लिये	-7.22792
▁-	-7.23346
▁रहा	-7.23518
▁शामिल	-7.24363
;	-7.24609
▁उसके	-7.24622
▁सभी	-7.26217
▁जाने	-7.26409
▁इसे	-7.27634
▁बीच	-7.27833
▁तरह	-7.28711
▁उस	-7.29856
▁लिया	-7.31164
▁गाँव	-7.31184
▁जाते	-7.31356
▁उनकी	-7.31849
▁कोई	-7.32822
▁प्रमुख	-7.33594
▁भाग	-7.34351
▁प्रयोग	-7.34856
▁जिले	-7.34963
्स	-7.37153
ित	-7.37467
▁देश	-7.38442
▁कार्य	-7.3932
▁करना	-7.39702
▁जिसमें	-7.40918
▁प्रदेश	-7.41439
▁मुख्य	-7.42331
▁यहाँ	-7.43226
▁निर्माण	-7.44699
▁ओर	-7.45006
▁जन्म	-7.45227
▁दी	-7.46361
▁लगभग	-7.46687
▁लोगों	-7.46745
ने	-7.48499
▁दोनों	-7.48812
ना	-7.49187
▁काम	-7.50607
▁स्थान	-7.507
▁उपयोग	-7.50798
▁उसे	-7.51223
▁सकते	-7.5136
▁विश्व	-7.51693
▁अ	-7.54481
▁शहर	-7.54606
▁सरकार	-7.55261
ियों	-7.55492
▁इसकी	-7.55728
s	-7.55964
▁बार	-7.56136
पुर	-7.57019
▁विकास	-7.58239
▁इसी	-7.58352
▁वाली	-7.58374
▁दक्षिण	-7.59307
▁नगर	-7.59577
▁तीन	-7.59706
▁आ	-7.59849
E	-7.60357
▁केवल	-7.60364
N	-7.6095
▁कहते	-7.6146
▁धर्म	-7.61489
▁2	-7.61596
ई	-7.62563
▁माना	-7.63679
▁करती	-7.64436
▁विशेष	-7.65832
▁फिर	-7.6605
▁लोग	-7.66185
ीय	-7.66414
त	-7.66721
▁फिल्म	-7.66869
▁जीवन	-7.67406
▁प्राचीन	-7.67771
्	-7.67782
▁दौरान	-7.67977
▁अलग	-7.69369
▁इसमें	-7.70139
▁मे	-7.70143
▁1	-7.70445
▁जिसे	-7.70536
कर	-7.70874
▁आधार	-7.70877
िक	-7.71293
▁बना	-7.72044
▁विभिन्न	-7.72358
°	-7.73019
▁ई	-7.74214
▁अब	-7.75599
▁द	-7.76515
▁मंदिर	-7.76572
▁उनका	-7.76742
▁प्रसिद्ध	-7.77289
▁जी	-7.77561
▁प्रति	-7.77637
▁शब्द	-7.77847
▁दिन	-7.79085
▁क्योंकि	-7.79314
▁राष्ट्रीय	-7.79508
▁यहां	-7.79737
▁शुरू	-7.80108
▁अनेक	-7.80335
▁काल	-7.81351
▁पास	-7.81462
0	-7.81654
▁रही	-7.81675
▁संवत	-7.81786
▁जाना	-7.81983
▁युद्ध	-7.82007
ए	-7.84061
▁अन्तर्गत	-7.84111
▁बन	-7.84752
▁तब	-7.85476
▁अपना	-7.86135
▁जिसके	-7.86737
▁हालांकि	-7.87387
▁ईसा	-7.87904
ज	-7.87952
▁अलावा	-7.88043
▁नदी	-7.88546
▁व्यक्ति	-7.88939
▁मध्य	-7.89081
▁गयी	-7.90441
▁सन्	-7.90784
▁महत्वपूर्ण	-7.90882
▁राजा	-7.90922
द	-7.9121
▁जल	-7.91455
ि	-7.91942
▁मूल	-7.92014
▁बड़े	-7.92245
▁संख्या	-7.92418
▁कभी	-7.92509
ट	-7.92776
▁विज्ञान	-7.93036
/	-7.93046
▁अध्ययन	-7.93102
▁उन	-7.93607
▁ले	-7.93973
▁साल	-7.93998
▁प्रथम	-7.94144
▁किए	-7.94753
▁ए	-7.95499
▁the	-7.95936
▁नामक	-7.96462
▁हिन्दी	-7.97152
ओं	-7.97731
प	-7.97802
▁साहित्य	-7.97826
व	-7.98434
▁प्रदान	-7.98561
▁सकती	-7.98617
▁जिसका	-7.99452
▁अमेरिका	-8.0033
▁दूसरे	-8.00871
ते	-8.01135
▁प्रभाव	-8.01249
▁उसकी	-8.01341
▁जबकि	-8.01737
▁चाहिए	-8.01904
▁शिक्षा	-8.01905
▁तौर	-8.02295
▁वाला	-8.02898
▁गये	-8.03264
▁आम	-8.03375
▁कुल	-8.03416
▁अर्थ	-8.0373
▁स्थापित	-8.0377
▁दिल्ली	-8.04341
▁हर	-8.04525
ब	-8.04539
▁:	-8.04647
▁ऐसे	-8.04711
▁उच्च	-8.05059
▁सिंह	-8.05224
▁बड़ा	-8.05533
▁बड़ी	-8.05614
▁संयुक्त	-8.05749
▁बात	-8.06103
▁ऐसा	-8.06194
▁चार	-8.07185
▁स्थापना	-8.08538
▁आज	-8.09046
▁पहली	-8.09059
▁तहसील	-8.09075
▁मण्डल	-8.09203
▁देने	-8.09334
▁अथवा	-8.09335
▁देशों	-8.10224
▁वर्तमान	-8.11498
▁बनाया	-8.12027
▁इतिहास	-8.12039
▁किये	-8.12286
▁यदि	-8.12602
▁रखा	-8.13363
▁काफी	-8.13425
▁समूह	-8.13645
▁विश्वविद्यालय	-8.14814
य	-8.15469
जी	-8.15639
सी	-8.15887
▁जिससे	-8.16346
▁of	-8.16431
िया	-8.16448
▁करके	-8.16547
नी	-8.16766
ती	-8.16983
▁स्थिति	-8.17328
▁उसने	-8.17688
▁सी	-8.17887
रा	-8.17959
▁बनाने	-8.18458
▁बारे	-8.1898
▁प्रत्येक	-8.18996
▁रंग	-8.1916
▁वर्षों	-8.19266
▁लेकर	-8.19289
▁इनके	-8.19334
▁स्तर	-8.19771
वीं	-8.20034
▁सेना	-8.20192
▁10	-8.20211
री	-8.20382
ें	-8.20852
▁श्री	-8.2092
▁क्षेत्रों	-8.21417
▁उसका	-8.21568
▁स	-8.21904
का	-8.22125
▁उपलब्ध	-8.22187
▁शरीर	-8.22287
▁सभा	-8.22937
▁अधिकांश	-8.23031
▁सामाजिक	-8.23058
▁वर्ग	-8.23276
2	-8.23366
▁दे	-8.23685
▁लगा	-8.23817
▁सेवा	-8.23875
▁रहता	-8.2394
श	-8.24502
▁3	-8.2452
▁दूर	-8.24885
▁सदस्य	-8.25099
▁माध्यम	-8.25547
▁देता	-8.2557
ु	-8.25867
ज़	-8.26109
▁उत्पन्न	-8.26894
▁इससे	-8.26978
▁फ़िल्म	-8.26994
▁15	-8.27042
▁दुनिया	-8.2717
▁इस्तेमाल	-8.27266
िंग	-8.27401
▁8	-8.27608
▁जहां	-8.28102
▁ब्रिटिश	-8.28155
ड	-8.2818
▁जहाँ	-8.28594
▁इसलिए	-8.28631
▁पानी	-8.29422
ली	-8.29477
▁समाज	-8.29855
▁मानव	-8.301
▁अंत	-8.30145
▁समान	-8.30239
▁परिवार	-8.30346
▁पाकिस्तान	-8.30494
▁शक्ति	-8.30525
▁संगीत	-8.30825
▁प्रणाली	-8.31018
ग	-8.31087
▁संघ	-8.31343
▁5	-8.31632
▁होगा	-8.31668
▁पुरस्कार	-8.31738
▁आधुनिक	-8.32107
▁सामान्य	-8.32193
या	-8.32244
▁थीं	-8.32414
▁आगे	-8.32424
▁बने	-8.32545
▁छोटे	-8.32651
▁अतिरिक्त	-8.32781
▁उदाहरण	-8.32811
▁होकर	-8.32946
▁रहते	-8.33468
▁अधिकार	-8.33691
ला	-8.34298
ण	-8.34325
▁स्टेशन	-8.34557
▁शासन	-8.34631
▁चीन	-8.34892
▁जिनमें	-8.35041
▁क	-8.35089
▁4	-8.35179
ह	-8.35685
▁जिस	-8.35984
ंग	-8.36262
▁‘	-8.36282
▁16	-8.36523
▁भूमिका	-8.36627
▁देते	-8.36844
▁शताब्दी	-8.36914
▁जारी	-8.36933
▁विकसित	-8.37275
▁ज्ञान	-8.37287
▁पिता	-8.38182
▁मृत्यु	-8.38183
▁बाहर	-8.3848
▁कंपनी	-8.38566
’	-8.38587
▁ली	-8.38604
▁पश्चिम	-8.38685
▁प्रकाशित	-8.38767
▁रेलवे	-8.38939
▁कला	-8.3904
के	-8.39091
▁प्रकाश	-8.39876
▁राजधानी	-8.39902
▁7	-8.40618
▁ध्यान	-8.408
▁मात्रा	-8.40906
▁संबंध	-8.40913
▁विचार	-8.41011
▁उत्तराखण्ड	-8.41063
▁आधारित	-8.41207
▁ऑफ	-8.41317
▁बनी	-8.41403
▁ऊपर	-8.42001
▁आप	-8.42315
▁20	-8.42338
की	-8.42573
▁पद	-8.4276
▁बिहार	-8.43123
▁देखा	-8.43235
ओ	-8.43401
▁चुनाव	-8.43423
▁सब	-8.43457
▁पता	-8.43857
▁6	-8.44728
▁पहला	-8.44869
▁घर	-8.45792
▁प्रक्रिया	-8.46012
▁पूरी	-8.46023
▁नए	-8.46242
▁मार्ग	-8.46313
▁उत्तरी	-8.46464
▁विषय	-8.46776
़	-8.47117
▁स्वयं	-8.4757
▁इनमें	-8.47674
▁रचना	-8.47852
▁राज	-8.47961
च	-8.47972
▁रोग	-8.48084
▁तैयार	-8.48365
▁नीचे	-8.48565
▁भगवान	-8.48639
वा	-8.49039
▁12	-8.49644
▁ऐसी	-8.49721
▁यात्रा	-8.50277
▁जनसंख्या	-8.51096
▁साम्राज्य	-8.51368
▁पश्चिमी	-8.51383
▁17	-8.51661
▁दृष्टि	-8.51711
▁होना	-8.51736
▁भिन्न	-8.51867
▁दशक	-8.51896
▁दूसरी	-8.51913
▁सहायता	-8.52119
▁सीमा	-8.52288
▁उत्पादन	-8.52381
▁अक्सर	-8.52961
▁पृथ्वी	-8.5308
▁किलोमीटर	-8.53281
▁व्यवस्था	-8.53617
बी	-8.53628
▁मिला	-8.53831
▁सिद्धांत	-8.53895
▁वहाँ	-8.54185
▁स्	-8.54315
▁भर	-8.54356
▁हिस्सा	-8.54369
▁आने	-8.54563
1	-8.5457
▁जगह	-8.54629
▁आवश्यक	-8.54706
▁पुत्र	-8.54888
▁टीम	-8.55107
▁लिखा	-8.55179
▁राम	-8.55265
▁सन	-8.55356
▁आर्थिक	-8.5549
▁पार्टी	-8.55518
मा	-8.56213
▁हेतु	-8.56449
टी	-8.56776
▁उप	-8.56832
▁लगे	-8.57017
▁बिना	-8.57322
▁पूर्वी	-8.57513
▁वो	-8.57594
वी	-8.57763
▁तुलना	-8.57826
ू	-8.57849
▁पाया	-8.57932
▁विभाग	-8.58202
▁ज्यादा	-8.5841
▁9	-8.58425
अ	-8.58548
ले	-8.58721
▁सदी	-8.58736
▁गति	-8.59025
▁लोक	-8.59071
▁इनका	-8.59141
▁संगठन	-8.59182
▁रहती	-8.5933
▁नई	-8.59361
▁पूरा	-8.59803
▁द्वीप	-8.59899
▁मिलता	-8.60323
▁अंग्रेजी	-8.6033
▁अभी	-8.60375
▁उसी	-8.60651
▁पूर्ण	-8.60749
▁केंद्र	-8.60951
से	-8.61069
▁प्रदर्शन	-8.6131
▁रहने	-8.61341
डी	-8.61351
▁वि	-8.61422
▁सु	-8.61539
▁वृद्धि	-8.61695
▁अवधि	-8.6198
▁संस्कृत	-8.62217
▁क्रिकेट	-8.62248
▁स्थानीय	-8.62429
▁प्र	-8.62435
▁आते	-8.62494
▁वर्णन	-8.62551
▁अंतर्राष्ट्रीय	-8.62862
▁मिल	-8.62909
▁ऑफ़	-8.62915
▁अमेरिकी	-8.62948
▁प्रभावित	-8.63041
▁हम	-8.63076
▁किंतु	-8.63123
▁युग	-8.63499
▁पूरे	-8.63542
▁आकार	-8.63617
▁राष्ट्र	-8.6391
▁अंतिम	-8.64169
▁कोड	-8.64436
▁पड़ा	-8.64743
निर्देशांक	-8.65214
▁आई	-8.65227
▁विशिष्ट	-8.65265
▁भूमि	-8.65273
▁योजना	-8.65525
▁खेल	-8.65914
को	-8.66055
▁परिवर्तन	-8.66335
▁व्यापार	-8.66455
▁दर्शन	-8.6648
▁बल	-8.66874
▁and	-8.67229
▁बी	-8.67277
▁स्पष्ट	-8.67278
▁14	-8.67463
▁जाति	-8.67821
▁प्रयास	-8.67946
▁दर	-8.67976
▁राजनीतिक	-8.68848
▁राष्ट्रपति	-8.68986
म्	-8.69044
थ	-8.69191
ed	-8.69213
▁क्षमता	-8.69411
▁हिन्दू	-8.69463
▁कार्यक्रम	-8.69665
▁एशिया	-8.69809
▁लाल	-8.69815
▁म	-8.69923
▁डी	-8.70068
▁शुरुआत	-8.70118
▁11	-8.70176
▁धार्मिक	-8.7051
▁संबंधित	-8.70612
मी	-8.70707
▁लोकप्रिय	-8.70799
▁=	-8.70825
▁प्रवेश	-8.70916
्य	-8.71105
▁सं	-8.7119
▁आता	-8.71267
▁रखने	-8.71343
▁सके	-8.71474
▁18	-8.71488
▁यूरोप	-8.72058
▁शक	-8.72073
▁शिव	-8.72348
▁माता	-8.72429
▁उद्देश्य	-8.729
▁आवश्यकता	-8.72902
▁खोज	-8.72987
▁श्रेणी	-8.73295
▁दूरी	-8.73938
▁बजे	-8.73966
▁नियंत्रण	-8.74114
▁दूसरा	-8.74341
▁लेने	-8.746
▁ट्रेन	-8.74889
▁विस्तार	-8.74945
▁प्रतिशत	-8.7502
▁in	-8.75064
▁विधि	-8.75149
▁हिंदी	-8.75243
▁ऐतिहासिक	-8.75453
▁इन्हें	-8.75563
▁पदार्थ	-8.75672
▁रेल	-8.75754
▁बैंक	-8.75778
वाद	-8.75798
▁मीटर	-8.75952
एँ	-8.76011
▁आया	-8.76795
▁इन्होंने	-8.76821
▁व्यापक	-8.77122
▁विशाल	-8.77132
रे	-8.77248
▁दिखाई	-8.77397
▁2008	-8.774
▁ओ	-8.77471
▁रह	-8.77537
▁कांग्रेस	-8.77592
▁30	-8.77683
▁प्रस्तुत	-8.77713
▁13	-8.77977
▁आबादी	-8.7799
▁सा	-8.78048
▁द्वितीय	-8.78088
सा	-8.78473
▁प्राकृतिक	-8.78583
▁शैली	-8.78866
▁जिन्हें	-8.78964
▁प्रदर्शित	-8.78993
▁जनता	-8.79008
▁सुरक्षा	-8.79013
▁कृष्ण	-8.7904
▁संस्थान	-8.79213
▁लाख	-8.79231
▁मन	-8.79246
▁मई	-8.79327
▁जनवरी	-8.79517
▁निम्न	-8.7966
▁वैज्ञानिक	-8.79744
▁2007	-8.79818
▁दिए	-8.80372
▁संस्कृति	-8.80432
▁इनकी	-8.80448
▁बौद्ध	-8.80803
▁य	-8.80955
▁दल	-8.81063
▁विवाह	-8.81236
▁बनाए	-8.81417
वे	-8.81577
▁क्रिया	-8.81915
▁स्थल	-8.82042
▁खिलाफ	-8.82148
फ	-8.82243
▁स्कूल	-8.82326
▁बताया	-8.82655
▁ऊर्जा	-8.82959
▁उल्लेख	-8.83095
बा	-8.83303
▁संस्करण	-8.83372
▁वजह	-8.83373
▁सामने	-8.837
▁गांधी	-8.83745
एस	-8.83787
▁मिली	-8.83961
पर	-8.83999
▁अल	-8.84012
▁जाए	-8.84029
▁सहित	-8.84046
इ	-8.8431
▁अंतर्गत	-8.84448
▁a	-8.84469
यों	-8.84472
▁परन्तु	-8.84657
▁.	-8.84745
▁पुस्तक	-8.84765
▁समाप्त	-8.85073
▁पुराने	-8.85082
▁पैदा	-8.85281
▁व्यवहार	-8.85341
▁हाथ	-8.85386
स्	-8.85512
▁स्वतंत्रता	-8.85637
▁नेतृत्व	-8.85637
▁निर्मित	-8.85746
▁सम्मानित	-8.85896
▁रक्त	-8.86025
▁देव	-8.86322
▁मार्च	-8.86457
▁परंतु	-8.86648
▁पड़ता	-8.86659
▁भीतर	-8.86677
दा	-8.86869
▁अफ्रीका	-8.87006
▁घोषणा	-8.87257
▁चला	-8.87419
आ	-8.87435
▁दिशा	-8.87456
▁उद्योग	-8.87465
▁2009	-8.87793
▁च	-8.87826
▁कुमाऊँ	-8.87953
▁कवि	-8.8814
▁समर्थन	-8.88141
▁परिणाम	-8.88158
▁ब	-8.88295
▁स्वीकार	-8.88388
▁अप्रैल	-8.88414
▁मैं	-8.88457
▁देवी	-8.88667
▁पहचान	-8.88717
▁अवस्था	-8.88759
4	-8.88765
▁सफल	-8.89277
|	-8.89402
▁जून	-8.89483
▁प्रचलित	-8.89701
▁पर्वत	-8.89865
▁जानकारी	-8.89941
▁किन्तु	-8.89977
▁वंश	-8.90493
▁देती	-8.90713
एं	-8.909
▁तहत	-8.91033
वर	-8.91088
िका	-8.91198
▁जिसकी	-8.91216
▁अरब	-8.91246
ख	-8.91303
▁दक्षिणी	-8.91346
*	-8.91493
▁बाल	-8.91627
▁लगता	-8.9164
▁महत्व	-8.9166
▁स्वतंत्र	-8.92138
▁प	-8.92147
▁किमी	-8.92183
गा	-8.922
▁यही	-8.92287
▁महान	-8.92403
▁दिनों	-8.92439
▁पत्र	-8.92517
3	-8.92672
▁जुलाई	-8.92674
▁ना	-8.9295
▁मदद	-8.92989
▁छोटी	-8.93031
▁नि	-8.93114
▁भाई	-8.93421
▁चिकित्सा	-8.93532
▁महिला	-8.93801
▁पांच	-8.93803
▁इंग्लैंड	-8.93831
▁to	-8.93875
▁2006	-8.93881
▁जीव	-8.93918
▁लाभ	-8.94356
▁श्रृंखला	-8.94408
▁बंद	-8.94606
▁उपचार	-8.94674
▁कमी	-8.94882
▁मौजूद	-8.94897
▁19	-8.95263
▁अगस्त	-8.9544
▁मिलती	-8.95516
▁एस	-8.95768
▁हवाई	-8.95782
▁अक्टूबर	-8.95807
▁गुरु	-8.95827
▁जनगणना	-8.95905
▁भागों	-8.96036
▁विधान	-8.96114
▁शासक	-8.96138
▁आरम्भ	-8.96174
▁फ्रांस	-8.96406
साथ	-8.96446
जा	-8.96451
▁चीनी	-8.96467
▁25	-8.96548
▁भाषाओं	-8.96577
5	-8.966
▁मुस्लिम	-8.96659
▁एम	-8.96749
▁मान	-8.96774
▁जिसने	-8.9695
▁अगर	-8.9697
▁कृषि	-8.97232
▁निम्नलिखित	-8.97243
▁मानते	-8.97275
▁करोड़	-8.97446
▁सात	-8.97463
ीकरण	-8.97586
▁योगदान	-8.97602
▁समुदाय	-8.97611
▁कहानी	-8.97654
▁बंगाल	-8.97752
▁मनुष्य	-8.9782
▁मत	-8.97931
▁परीक्षण	-8.98186
▁पीछे	-8.98439
▁अध्यक्ष	-8.98585
▁अंग	-8.98654
▁वस्तु	-8.98754
कार	-8.98819
▁समुद्र	-8.98901
▁राज्यों	-8.99036
▁उनमें	-8.99181
▁केन्द्र	-8.99205
▁संविधान	-8.99241
▁कानून	-8.99358
▁इ	-8.99427
▁अंतर	-8.99454
▁विमानक्षेत्र	-8.99932
▁सागर	-9.00061
रो	-9.00124
▁सरकारी	-9.00166
▁गांव	-9.00169
▁क्या	-9.0027
▁बढ़	-9.00301
▁बल्कि	-9.00868
▁वापस	-9.00959
▁मेल	-9.0098
दार	-9.01274
▁सर	-9.01331
▁सुधार	-9.01452
▁जैसा	-9.01497
▁संचालित	-9.01651
▁मैच	-9.01809
पी	-9.01901
▁अनुसंधान	-9.02097
▁हाल	-9.02239
▁महा	-9.0241
▁रक्षा	-9.02477
▁लेखक	-9.02536
▁पाए	-9.02829
▁जन	-9.02888
▁आरंभ	-9.02938
ियाँ	-9.02982
▁शब्दों	-9.03191
▁गैर	-9.03221
▁सूची	-9.03398
▁जैसी	-9.03464
▁आयोजित	-9.03489
▁जैन	-9.03539
▁चुके	-9.03583
▁इतन	-9.03658
न्	-9.0369
▁प्रयुक्त	-9.03792
▁मन्दिर	-9.04016
▁विश्वास	-9.04115
▁सार्वजनिक	-9.04415
!	-9.04439
▁ग्रंथ	-9.04457
▁भोजन	-9.04461
▁अत	-9.04592
▁सहायक	-9.04723
▁घंटे	-9.04757
उ	-9.04806
▁देखने	-9.04914
▁नेपाल	-9.04936
▁मिनट	-9.05061
▁उसमें	-9.0514
▁गीत	-9.05178
▁मुंबई	-9.05205
▁एंड	-9.05261
▁घटना	-9.05347
▁कॉलेज	-9.05356
फ़	-9.05368
▁ब्रिटेन	-9.054
▁मुक्त	-9.05401
▁चुका	-9.05445
प्र	-9.05539
▁औसत	-9.05593
▁बच्चों	-9.05686
▁2010	-9.06151
भारत	-9.06212
▁सूर्य	-9.06354
पूर्ण	-9.06473
▁निर्भर	-9.06497
▁अतः	-9.06513
▁छोड़	-9.06553
▁ज्ञात	-9.06623
ति	-9.06718
▁धन	-9.06838
▁ठीक	-9.06848
▁दस	-9.06893
▁विरोध	-9.06985
▁टी	-9.07003
वें	-9.07007
▁बदल	-9.07085
▁नीति	-9.07312
▁न्यायालय	-9.07782
▁निर्णय	-9.0804
▁पंजाब	-9.08055
▁सर्वाधिक	-9.08128
al	-9.08317
▁त	-9.08428
▁मान्यता	-9.08567
सर	-9.08742
▁नियम	-9.08815
▁आक्रमण	-9.08846
▁डिग्री	-9.08899
मान	-9.0892
▁अली	-9.08964
▁स्वास्थ्य	-9.08983
▁बस	-9.09022
▁वहां	-9.09102
▁चल	-9.09113
▁चरण	-9.09164
िन	-9.09247
▁पुलिस	-9.0933
▁यूरोपीय	-9.09541
▁निर्वाचन	-9.09668
▁काव्य	-9.09771
▁उन्होने	-9.09832
▁संकेत	-9.09882
▁विस्तृत	-9.09914
a	-9.09928
)	-9.10223
▁पी	-9.10273
▁एक्स्प्रेस	-9.10415
▁सदस्यों	-9.10494
▁लेख	-9.10646
▁पक्ष	-9.1069
▁प्रबंधन	-9.10756
▁इत्यादि	-9.10778
राज	-9.10871
▁अंग्रेज़ी	-9.1091
▁पे	-9.11086
▁संसद	-9.11123
▁गंगा	-9.11278
▁जाएगा	-9.11483
▁पाँच	-9.11501
▁कहीं	-9.11519
ः	-9.11677
▁चित्र	-9.11702
▁एन	-9.11881
र्स	-9.12
▁वायु	-9.12062
▁कविता	-9.12065
▁निश्चित	-9.12098
▁पद्धति	-9.12127
▁डॉ॰	-9.12254
n	-9.12329
▁आर	-9.12385
▁लगाया	-9.12391
▁ताकि	-9.12519
▁आंदोलन	-9.12617
▁जिन्होंने	-9.12792
▁भू	-9.12954
▁संत	-9.12993
▁संबंधी	-9.13102
▁मंत्री	-9.13142
▁सम्मान	-9.1321
▁संभव	-9.13354
▁प्रेम	-9.13398
▁स्वरूप	-9.1343
▁जापान	-9.13488
सन	-9.13606
▁वन	-9.13646
▁तरफ	-9.13659
▁ह	-9.13754
▁उम्र	-9.13907
▁आमतौर	-9.14003
▁प्रारंभ	-9.14003
▁पार	-9.1417
▁सूचना	-9.14187
▁अच्छी	-9.14222
▁खान	-9.1423
▁अधिकतर	-9.1423
▁अनुमान	-9.14269
▁जीत	-9.14305
▁मामले	-9.14329
▁प्रान्त	-9.14337
▁उससे	-9.14402
▁समिति	-9.14434
▁गुण	-9.14437
▁यद्यपि	-9.14452
▁निजी	-9.14574
▁M	-9.1476
▁देना	-9.14836
▁बावजूद	-9.14847
▁प्रकृति	-9.14878
▁नया	-9.14941
▁शाह	-9.14957
▁तेल	-9.14987
ड़	-9.14994
▁तापमान	-9.15187
▁खुद	-9.15215
▁निकट	-9.15311
▁प्रधान	-9.15323
▁रूस	-9.15541
▁लागू	-9.15558
▁सामग्री	-9.15581
▁सीमित	-9.15608
▁पार्क	-9.15628
ँ	-9.15629
ियां	-9.15793
▁राजस्थान	-9.15915
▁तट	-9.16163
▁यू	-9.16183
नि	-9.16205
▁हे	-9.1624
▁24	-9.16278
ात्मक	-9.16282
▁भारी	-9.16347
▁विपरीत	-9.16368
▁रस	-9.16398
▁हासिल	-9.16561
▁वास्तविक	-9.16598
▁अंतरराष्ट्रीय	-9.16599
▁प्रौद्योगिकी	-9.16609
▁मुख्यालय	-9.16664
▁उपन्यास	-9.16818
काल	-9.1687
▁महल	-9.17021
▁गणना	-9.17046
▁सांस्कृतिक	-9.17055
▁बाजार	-9.17093
▁डे	-9.1714
▁नेटवर्क	-9.17157
▁संग्रह	-9.17169
▁दृश्य	-9.17512
▁2005	-9.17857
▁फल	-9.17906
▁प्राय	-9.18156
▁संरचना	-9.18402
▁आधिकारिक	-9.18767
▁साधारण	-9.18829
▁बांग्लादेश	-9.1883
▁सही	-9.18883
▁परमाणु	-9.19067
▁सतह	-9.19234
▁स्थानों	-9.1945
▁स्रोत	-9.19492
नगर	-9.19588
▁गैस	-9.19644
▁बोली	-9.19646
▁A	-9.19646
▁करीब	-9.19674
अलग	-9.19709
▁ला	-9.19712
▁प्रधानमंत्री	-9.19839
▁घोषित	-9.19887
▁21	-9.19958
▁वास्तव	-9.20029
▁लेते	-9.20045
▁जिन	-9.20057
▁लिपि	-9.20135
▁सक्रिय	-9.20157
▁मामलों	-9.20177
▁निर्धारित	-9.20202
▁आए	-9.20228
▁कु	-9.20272
▁रखते	-9.20299
▁विधानसभा	-9.20327
▁विद्युत	-9.2049
डा	-9.20547
▁योग	-9.20562
▁सफलता	-9.20614
y	-9.20707
▁इस्लाम	-9.20722
▁अत्यधिक	-9.20807
▁आती	-9.20815
▁अत्यंत	-9.20875
▁पर्याप्त	-9.21076
▁संघर्ष	-9.21088
यह	-9.21114
e	-9.21165
ये	-9.21258
▁विजय	-9.21288
▁सह	-9.21329
d	-9.21423
▁सारे	-9.21506
▁आसपास	-9.21531
▁हों	-9.21622
वि	-9.21647
▁जर्मनी	-9.21732
▁पूजा	-9.21904
आर	-9.22029
▁समस्या	-9.22101
▁लगी	-9.22175
हा	-9.22197
▁जे	-9.22199
▁सिद्ध	-9.22206
▁मात्र	-9.22278
▁नियुक्त	-9.223
▁धारा	-9.22383
▁शाखा	-9.22388
▁बनाई	-9.22394
▁कुमार	-9.22469
▁बुद्ध	-9.22489
▁नृत्य	-9.22511
▁छोटा	-9.22746
▁कथा	-9.22772
▁कार्यों	-9.22814
▁मिलते	-9.22909
▁तत्व	-9.22986
▁अति	-9.23038
▁अनुमति	-9.23155
▁प्रारंभिक	-9.23308
▁अधिनियम	-9.23401
7	-9.23432
ाई	-9.23446
▁बच्चे	-9.23464
▁तमिल	-9.2359
▁लक्षण	-9.23788
▁चलता	-9.23935
▁धातु	-9.24098
▁C	-9.24105
▁हिंदू	-9.24239
▁सुविधा	-9.24274
▁पुनः	-9.24297
राम	-9.24395
▁विभाजित	-9.24542
6	-9.25044
▁पत्नी	-9.25073
स्ट	-9.25245
▁गो	-9.25316
▁पालन	-9.25485
▁प्रांत	-9.25507
▁अनुभव	-9.25653
▁धीरे	-9.25663
▁रे	-9.25718
▁पुरुष	-9.25757
▁महिलाओं	-9.25853
▁तंत्र	-9.25878
▁मुहम्मद	-9.25927
▁आयु	-9.2598
▁जिनके	-9.26015
टा	-9.26351
▁शादी	-9.26469
गी	-9.26491
▁होगी	-9.26765
▁मिलियन	-9.26844
▁बनने	-9.26868
▁मार	-9.26908
▁एल	-9.26973
▁अधिकारी	-9.27001
▁ऑस्ट्रेलिया	-9.27031
▁लिखी	-9.27175
▁भवन	-9.27187
कभी	-9.27306
▁चले	-9.27348
▁विदेशी	-9.27354
▁2011	-9.27384
8	-9.27433
▁विष्णु	-9.27453
▁रि	-9.27504
▁गठन	-9.27505
▁50	-9.27754
▁शुरु	-9.27772
▁नाटक	-9.27797
▁ताप	-9.27832
एक	-9.27907
▁कोशिश	-9.28043
▁सत्ता	-9.28128
▁बे	-9.28497
▁पाई	-9.28642
▁100	-9.28734
▁चक्र	-9.2875
▁सम्मिलित	-9.28852
▁कश्मीर	-9.29161
▁26	-9.29187
▁सहयोग	-9.29196
▁मांग	-9.29238
▁जुड़े	-9.29279
▁लीग	-9.29355
▁2014	-9.29502
▁प्रस्ताव	-9.29518
▁रासायनिक	-9.29597
▁राजनीति	-9.29613
▁प्रकाशन	-9.2962
▁जिनका	-9.29667
▁क्रम	-9.29669
▁जर्मन	-9.29779
▁परिषद	-9.29809
▁महीने	-9.29835
▁ग्राम	-9.29867
▁2000	-9.29995
▁क्रांति	-9.30271
▁ख	-9.30299
▁परियोजना	-9.30375
▁घाटी	-9.30514
नाथ	-9.30581
▁डिजाइन	-9.30724
▁मूल्य	-9.30736
वादी	-9.30924
▁22	-9.30936
ing	-9.30936
ध	-9.30939
▁मिलकर	-9.30969
?	-9.3107
▁ईश्वर	-9.31112
▁उ	-9.31435
▁लखनऊ	-9.31659
▁नेता	-9.31675
▁मिले	-9.31686
▁इंटरनेट	-9.31699
▁सैन्य	-9.31731
इस	-9.31984
▁आयोजन	-9.32216
▁ऐ	-9.32369
▁सत्य	-9.32407
▁गढ़वाल	-9.32412
▁उत्पाद	-9.32421
t	-9.32458
▁अम्ल	-9.32551
▁अच्छा	-9.32553
▁सप्तर्षि	-9.32556
मन	-9.32777
▁S	-9.32984
▁B	-9.33044
▁अनुवाद	-9.33157
▁करें	-9.33171
टन	-9.33184
▁आन्ध्रप्रदेश	-9.33405
▁सम्बन्ध	-9.33941
मे	-9.33958
▁लंदन	-9.34011
▁I	-9.34029
▁बैंड	-9.3415
रि	-9.34176
▁लक्ष्य	-9.3419
▁लगातार	-9.34448
▁प्रकट	-9.34552
▁प्रचार	-9.34556
▁निवास	-9.34589
▁उपकरण	-9.34602
▁आठ	-9.34773
▁पत्थर	-9.34783
▁हत्या	-9.3501
▁आदेश	-9.35081
▁शोध	-9.35147
▁गाँधी	-9.35173
▁राय	-9.35298
▁संस्था	-9.35476
▁गर्म	-9.35499
▁झील	-9.35549
▁रात	-9.356
लाल	-9.35625
▁भौतिक	-9.35657
▁शेष	-9.35892
▁ग	-9.35893
▁विद्रोह	-9.35914
▁अधीन	-9.35956
▁सक्षम	-9.35963
लि	-9.35989
▁इंडिया	-9.36056
▁2004	-9.36189
▁विदेश	-9.362
▁व्यक्तियों	-9.36277
▁अकादमी	-9.36286
▁वस्तुओं	-9.36805
▁मा	-9.36853
▁जॉन	-9.36857
▁परिणामस्वरूप	-9.36993
▁हिस्से	-9.3705
▁तरीके	-9.37285
▁अधार	-9.3734
▁सम	-9.37466
▁खिलाड़ी	-9.37522
▁मौसम	-9.37678
ण्ड	-9.37744
▁पिछले	-9.37746
▁व्याख्या	-9.37752
A	-9.37795
▁मॉडल	-9.37823
▁इलाहाबाद	-9.37877
▁सिर्फ	-9.38336
▁अभियान	-9.38368
देव	-9.38413
▁कप	-9.38488
▁भाव	-9.38645
–	-9.38681
▁फिल्मों	-9.38686
▁अस्तित्व	-9.38713
▁मानक	-9.38776
▁28	-9.39041
ियन	-9.39135
▁कंप्यूटर	-9.39199
▁चर्च	-9.3925
%	-9.39257
▁संपर्क	-9.39325
▁नौ	-9.39381
▁सर्वश्रेष्ठ	-9.39502
▁–	-9.3951
▁शो	-9.39525
▁सिर	-9.3953
▁मु	-9.39533
▁विचारों	-9.39552
▁किस	-9.39562
▁P	-9.39658
▁अवसर	-9.39684
▁तल	-9.3973
▁वातावरण	-9.39796
▁समाचार	-9.39916
तर	-9.40096
▁रेडियो	-9.40152
▁किनारे	-9.40282
ंड	-9.40292
ंस	-9.40337
▁40	-9.40365
▁हवा	-9.40366
ियो	-9.40395
▁सड़क	-9.40422
▁वीं	-9.40516
▁योग्य	-9.40725
▁अंदर	-9.40838
▁2012	-9.40842
▁प्रशासनिक	-9.40936
▁छह	-9.41009
▁प्रमाण	-9.41221
▁23	-9.4129
विज्ञान	-9.41401
▁मिट्टी	-9.41491
▁नष्ट	-9.4156
▁रानी	-9.41783
नो	-9.4179
▁वर्षा	-9.41834
▁तर्क	-9.41841
▁बजाय	-9.41951
▁सूत्र	-9.42
▁हमारे	-9.42005
▁बराबर	-9.42116
▁रेखा	-9.42181
▁अनु	-9.42221
▁संरक्षण	-9.42233
▁दिसम्बर	-9.42248
▁शीर्ष	-9.42264
ॉ	-9.42337
▁उल्लेखनीय	-9.42439
जन	-9.42469
िस	-9.42573
▁चारों	-9.42595
▁औद्योगिक	-9.42631
}	-9.42672
▁जोखिम	-9.4269
▁व्यक्तिगत	-9.42718
▁2001	-9.42723
।"	-9.42846
▁प्रशासन	-9.42895
▁वी	-9.43023
▁डॉलर	-9.43187
▁अर्थात्	-9.43236
मो	-9.43313
▁क्लब	-9.43329
▁स्वामी	-9.43362
▁उपस्थित	-9.43434
▁अभिनय	-9.43498
▁हैदराबाद	-9.43537
▁रिपोर्ट	-9.43543
वन	-9.43568
क्स	-9.43691
▁दृष्टिकोण	-9.43706
▁विमान	-9.43728
▁पवित्र	-9.43844
▁लिखे	-9.43866
▁चुकी	-9.43903
▁सोवियत	-9.43974
▁प्रायः	-9.44205
▁सामूहिक	-9.44268
▁क्षेत्रफल	-9.44284
▁वहीं	-9.44296
▁माँ	-9.44303
i	-9.44578
▁खास	-9.44599
▁विश्लेषण	-9.4462
o	-9.44683
▁सुरक्षित	-9.44701
▁सौ	-9.4484
9	-9.44855
▁इसने	-9.44894
▁लेता	-9.45
▁चेन्नई	-9.45014
▁पत्रिका	-9.45047
वाले	-9.4522
▁न्यू	-9.45228
▁वीर	-9.45338
पन	-9.45353
▁सि	-9.45431
▁सैनिक	-9.45513
▁शास्त्र	-9.45769
▁र	-9.458
▁पश्चात	-9.4594
▁प्रतिनिधित्व	-9.46047
▁अन्तर	-9.46059
▁रचित	-9.46115
▁F	-9.46275
▁2013	-9.46354
▁प्रशिक्षण	-9.46414
▁मैदान	-9.46445
▁फ	-9.46467
▁रोमन	-9.46526
▁परंपरा	-9.4653
▁सम्मेलन	-9.46634
ेश्वर	-9.46652
▁अंश	-9.46982
गर	-9.47096
▁देख	-9.47115
▁सेंट	-9.47146
C	-9.47147
▁अगले	-9.47257
▁रसायन	-9.47335
er	-9.47446
▁अंतरिक्ष	-9.47625
▁मील	-9.4768
▁मोबाइल	-9.47722
▁तकनीक	-9.47762
▁संग्रहालय	-9.47834
▁वित्तीय	-9.47893
▁जांच	-9.47936
▁1990	-9.47977
▁शांति	-9.48087
▁पा	-9.48134
▁प्राथमिक	-9.48176
▁आये	-9.48208
▁सम्राट	-9.48238
▁ईसाई	-9.48285
▁पहुँच	-9.48331
▁शहरों	-9.48377
▁लड़ाई	-9.48404
▁महाराष्ट्र	-9.48541
▁The	-9.48712
▁आम्बेडकर	-9.48761
▁जिसमे	-9.48922
▁ज	-9.48958
▁चाहते	-9.49
▁माल	-9.49033
▁सरल	-9.49171
▁अभिनेता	-9.492
▁राजवंश	-9.49234
▁दिये	-9.49345
ठ	-9.49357
▁हमेशा	-9.49385
▁पदार्थों	-9.49416
त्व	-9.49489
▁नागरिक	-9.49596
▁बहु	-9.49654
▁27	-9.49663
▁विवरण	-9.49721
▁ग्रहण	-9.49852
▁दबाव	-9.49943
▁गणराज्य	-9.50055
गत	-9.50055
जो	-9.50188
▁प्रतिक्रिया	-9.50208
▁भविष्य	-9.50219
▁व्यवसाय	-9.50237
रूप	-9.50239
▁मौत	-9.50249
सं	-9.50266
▁अपराध	-9.50272
p	-9.50405
▁प्रारम्भ	-9.50458
▁आलोचना	-9.50554
▁सुंदर	-9.50937
▁उपयुक्त	-9.5101
▁मुख्यतः	-9.51044
▁समझा	-9.51109
गो	-9.51111
▁{\	-9.51211
▁हार	-9.51336
▁पशु	-9.51425
▁पारंपरिक	-9.51512
▁विख्यात	-9.51646
▁ग्रह	-9.51662
▁संभावना	-9.51699
मैन	-9.51761
▁संक्रमण	-9.51819
▁शारीरिक	-9.51857
▁समस्त	-9.5188
▁नवम्बर	-9.51883
▁विरुद्ध	-9.52019
▁उत्पत्ति	-9.52031
दी	-9.52032
▁मिस्र	-9.52098
▁निर्माता	-9.5213
्र	-9.52164
▁सर्वोच्च	-9.52257
यर	-9.52444
ंट	-9.52489
▁उचित	-9.52504
▁आय	-9.52513
I	-9.5269
▁संसार	-9.52697
पा	-9.52768
▁तेजी	-9.52949
डे	-9.52974
▁व्यक्त	-9.52982
▁is	-9.5305
▁लंबे	-9.53131
सिंह	-9.5319
▁सभ्यता	-9.53232
▁सीधे	-9.53262
▁तत्कालीन	-9.5333
▁दावा	-9.53353
॰	-9.5338
शन	-9.53497
▁सामना	-9.53555
▁केरल	-9.5357
▁विद्वानों	-9.53587
▁ग्रामीण	-9.53813
▁उनसे	-9.53833
▁नियमित	-9.53843
एल	-9.53913
▁इच्छा	-9.54129
▁संचालन	-9.54165
▁इंजन	-9.5428
▁जेल	-9.54334
▁सम्बंधित	-9.54339
▁प्रसाद	-9.54452
▁पश्चात्	-9.54463
▁इकाई	-9.54495
जे	-9.54564
▁टेस्ट	-9.54597
▁बेहतर	-9.54651
▁दर्शात	-9.54779
B	-9.54853
▁डि	-9.54915
▁एकमात्र	-9.54952
▁स्व	-9.55016
▁रख	-9.55082
▁सो	-9.55119
▁चलते	-9.55128
S	-9.55196
▁पहाड़ी	-9.55268
▁यौगिक	-9.55351
▁केंद्रीय	-9.5547
▁नर	-9.55512
▁शाही	-9.55563
▁मस्तिष्क	-9.55607
भ	-9.55634
▁जुड़ा	-9.55653
▁अर्थात	-9.55665
▁जलवायु	-9.55715
▁ल	-9.55786
m	-9.55825
▁छ	-9.55972
▁युवा	-9.56038
▁माने	-9.5604
▁विषयों	-9.56077
▁सर्व	-9.56091
▁न्याय	-9.56119
▁लागत	-9.56436
▁लेखन	-9.56464
▁कोशिका	-9.56499
▁सिस्टम	-9.5657
▁तीसरे	-9.56571
▁कार्बन	-9.56627
▁लग	-9.56665
▁प्रतीक	-9.56682
▁मीडिया	-9.56785
▁शुद्ध	-9.56845
▁किले	-9.56934
▁निकल	-9.56968
▁फरवरी	-9.56998
▁विद्यालय	-9.57027
त्	-9.57135
▁वर्णित	-9.572
▁घरेलू	-9.57214
▁सितंबर	-9.57214
▁ज्यादातर	-9.57237
▁मिलने	-9.57238
▁मानना	-9.57244
▁जीवित	-9.57283
▁शिकार	-9.57629
▁ब्राह्मण	-9.57645
▁गुप्त	-9.57718
▁कहलाता	-9.57792
▁गंभीर	-9.57816
▁प्रवाह	-9.57896
▁समझ	-9.57909
▁→	-9.58003
▁2003	-9.58013
▁दिखाया	-9.58017
▁तेज	-9.58032
▁पाने	-9.58102
",	-9.58159
▁आचार्य	-9.58181
▁समूहों	-9.583
▁विभाजन	-9.58387
▁अंग्रेजों	-9.58414
▁ढंग	-9.58453
▁घटनाओं	-9.58505
▁2015	-9.58532
▁युक्त	-9.58585
▁लंबी	-9.58693
एन	-9.58707
▁एच	-9.58834
▁सत्र	-9.58884
र्	-9.58954
▁ध्वनि	-9.58968
▁अर्थव्यवस्था	-9.59006
▁वही	-9.59035
▁विक्रम	-9.59061
▁शायद	-9.59134
▁तकनीकी	-9.59184
▁पटना	-9.59357
टर	-9.59381
▁पर्यावरण	-9.59381
▁बि	-9.59602
style	-9.59621
लो	-9.59652
▁जीता	-9.59671
▁भ	-9.59729
▁देखते	-9.59733
▁सॉफ्टवेयर	-9.59769
▁नियंत्रित	-9.59774
▁गुजरात	-9.59836
▁H	-9.59958
गढ़	-9.5996
▁मेट्रो	-9.60001
in	-9.60039
▁रखी	-9.60059
▁कार्यालय	-9.6009
▁मुद्रा	-9.60111
▁परीक्षा	-9.60169
▁2016	-9.603
▁रखता	-9.60312
PM	-9.60347
▁फुट	-9.60352
▁पुरानी	-9.60372
▁78	-9.6044
▁संचार	-9.6046
▁केन्द्रीय	-9.60497
▁राशि	-9.60515
▁अमरीका	-9.60586
▁29	-9.60649
डो	-9.60666
▁2002	-9.60819
▁नही	-9.60874
▁पेश	-9.6098
▁संधि	-9.61009
▁स्वर	-9.61085
▁कार	-9.61141
▁भावना	-9.61157
▁रन	-9.61189
▁पुराना	-9.61202
▁समुद्री	-9.61212
▁चुना	-9.61242
▁परिवर्तित	-9.61434
▁भार	-9.61469
▁हिमालय	-9.6149
▁एक्स	-9.61583
▁जान	-9.61592
▁बाहरी	-9.61598
▁कनाडा	-9.61816
▁अपेक्षा	-9.61822
▁कोशिकाओं	-9.61863
19	-9.61991
▁अंक	-9.6203
▁ब्लैक	-9.62075
▁लि	-9.62133
ly	-9.62194
▁फैला	-9.62215
▁कहना	-9.62219
▁प्रेरित	-9.62496
▁हृदय	-9.62597
क्	-9.62762
▁मूर्ति	-9.62768
▁आगरा	-9.62796
▁टीवी	-9.6298
▁विविध	-9.63125
▁मो	-9.63204
▁प्रभावी	-9.63297
▁कानपुर	-9.63438
▁महासागर	-9.63517
▁शृंखला	-9.63613
▁आयोग	-9.63663
▁बिंदु	-9.6374
▁देवता	-9.63775
▁लगाने	-9.63802
आई	-9.63892
▁जय	-9.63904
▁उपस्थिति	-9.63926
यू	-9.63951
▁वीडियो	-9.6398
▁मंडल	-9.64114
▁हालाँकि	-9.64177
▁+	-9.64193
▁भेजा	-9.64277
▁वार्षिक	-9.64286
सु	-9.6438
',	-9.64433
▁खो	-9.64439
▁कर्म	-9.64573
▁नये	-9.64668
▁सप्ताह	-9.64693
display	-9.64694
▁ट	-9.64754
u	-9.64869
▁प्रत्यक्ष	-9.64934
▁वालों	-9.64983
ेन	-9.65066
▁रिकॉर्ड	-9.6513
▁परिभाषित	-9.652
▁ईरान	-9.65219
▁आदर्श	-9.65263
▁स्थायी	-9.65308
▁नव	-9.65336
▁खेलों	-9.65351
▁ब्रह्म	-9.65363
▁उर्दू	-9.65434
रू	-9.65448
▁मतलब	-9.65475
▁अरबी	-9.65513
▁सम्पूर्ण	-9.65551
▁श	-9.65589
▁तुर्की	-9.65616
▁मुरादाबाद	-9.65631
▁क्षेत्रीय	-9.65663
गंज	-9.65768
▁प्रतियोगिता	-9.65819
▁प्यार	-9.65878
▁जंक्शन	-9.65945
▁वर्ण	-9.65946
▁संपूर्ण	-9.66211
▁उपरोक्त	-9.6626
दर	-9.66361
▁जैव	-9.66549
▁नदियों	-9.66576
पूर्व	-9.66636
▁विवाद	-9.66666
▁साधन	-9.66685
▁मस्जिद	-9.66695
▁महाभारत	-9.66741
▁कह	-9.66767
▁बोर्ड	-9.66786
▁संदर्भ	-9.6683
▁जीवों	-9.66848
▁सेवाओं	-9.6696
▁अड्डा	-9.66972
ष	-9.67025
▁द्वार	-9.67049
▁लघु	-9.67087
▁एकल	-9.67129
▁कैलेंडर	-9.67132
▁पात्र	-9.67175
▁परि	-9.67273
गु	-9.67289
▁जातियों	-9.67351
▁ऊंचाई	-9.67388
▁फूल	-9.674
ाबाद	-9.67448
कि	-9.67526
▁स्वर्ण	-9.67553
▁ग्रन्थ	-9.67571
▁खंड	-9.67572
▁कोलकाता	-9.67649
▁आत्मा	-9.6773
▁कराया	-9.67897
▁तत्वों	-9.67934
▁विशेषता	-9.67987
▁मि	-9.68025
▁बनता	-9.68035
▁चर्चा	-9.68221
D	-9.6831
▁अच्छे	-9.68332
▁बनाये	-9.68364
▁आसानी	-9.6842
▁संपत्ति	-9.6842
चर	-9.68518
▁सौर	-9.68523
▁उपाधि	-9.68616
▁गोल	-9.68639
ार	-9.68641
▁58	-9.68668
▁अन	-9.68743
▁याद	-9.68856
▁लोकसभा	-9.68902
बार	-9.6895
▁मानकर	-9.68966
▁रूसी	-9.68967
॥	-9.6897
▁कल्पना	-9.69022
▁करेगा	-9.69135
▁बो	-9.6915
▁वैदिक	-9.69184
▁सिद्धान्त	-9.69213
▁ज़िले	-9.69307
▁स्थिर	-9.69316
▁बर	-9.69349
▁कठिन	-9.69376
▁पुराण	-9.69429
▁जनरल	-9.69563
वार	-9.69575
▁मां	-9.69626
कों	-9.69646
▁पर्यटन	-9.69711
▁पुन	-9.69726
▁हमें	-9.69889
▁सूक्ष्म	-9.70106
▁अन्दर	-9.70211
▁भौतिकी	-9.70213
▁1980	-9.70291
f	-9.70331
c	-9.706
▁पहुंचती	-9.7064
▁जेम्स	-9.70695
▁छोड़कर	-9.70863
▁कंपनियों	-9.7087
▁मर	-9.70943
▁मित्र	-9.70997
▁समारोह	-9.70998
में	-9.71023
▁पैमाने	-9.71032
▁आनंद	-9.71041
▁चरित्र	-9.71053
ां	-9.71064
▁दौर	-9.71079
▁चैनल	-9.71182
बल	-9.71191
▁साँचा	-9.71242
हम	-9.7128
्त	-9.71286
▁हजार	-9.71474
▁आन्दोलन	-9.71483
▁दास	-9.7153
▁सिनेमा	-9.71531
कारी	-9.71584
▁अधिकारियों	-9.71649
कल	-9.71651
▁जरूरत	-9.7178
बर	-9.71792
▁वा	-9.71821
▁बढ़ा	-9.71832
न्स	-9.71913
▁रोगी	-9.71999
▁उनको	-9.72084
▁राजनैतिक	-9.72104
▁सितम्बर	-9.72108
▁नियमों	-9.72119
▁जमा	-9.72135
▁हल	-9.72157
▁सुल्तान	-9.7216
▁मिलाकर	-9.72174
पाल	-9.72252
▁स्मृति	-9.72268
-1	-9.72291
▁वेब	-9.72366
▁57	-9.72387
▁परिसर	-9.72613
शा	-9.72659
▁जम्मू	-9.7266
▁समस्याओं	-9.72752
▁सिटी	-9.72785
▁कर्नाटक	-9.72845
▁दिवस	-9.72876
ै	-9.72928
▁फलस्वरूप	-9.72951
or	-9.7298
▁s	-9.73095
▁31	-9.73097
▁कारणों	-9.73118
F	-9.73142
▁डाला	-9.73252
▁पुल	-9.73294
+	-9.73334
▁फोन	-9.73373
सि	-9.73377
▁मजबूत	-9.73392
▁कैंसर	-9.73465
▁तीव्र	-9.73868
▁शक्तिशाली	-9.73887
▁लाइन	-9.73904
▁अपेक्षाकृत	-9.7397
िल	-9.7399
▁छात्र	-9.74079
▁अभि	-9.7409
▁पौधों	-9.7412
▁सर्वप्रथम	-9.74137
ीन	-9.74159
▁D	-9.74184
रिया	-9.74192
b	-9.74233
▁कलाकार	-9.74253
▁जहाज	-9.74373
▁वाराणसी	-9.74412
कु	-9.74478
▁अनुपात	-9.74483
▁उद्यान	-9.74547
10	-9.74611
▁उपयोगी	-9.74707
▁f	-9.74735
▁दुर्ग	-9.74875
P	-9.74881
g	-9.74905
▁U	-9.74917
▁जटिल	-9.75014
▁हमला	-9.75053
▁शिवाजी	-9.75088
=	-9.751
▁प्रसार	-9.7512
तम	-9.75135
▁मराठी	-9.75252
▁पड़ती	-9.75279
▁शीर्षक	-9.75388
▁सन्दर्भ	-9.75452
▁जमीन	-9.75685
▁लंबाई	-9.75808
▁आग	-9.7584
▁K	-9.75862
AM	-9.75883
▁व्यावसायिक	-9.75925
▁प्रश्न	-9.75932
▁श्रीलंका	-9.7601
▁गतिविधियों	-9.7604
▁बीमारी	-9.76058
▁तय	-9.76061
▁रोक	-9.76119
▁हाउस	-9.76244
▁माह	-9.7628
▁मसीह	-9.76293
▁व्यास	-9.76295
▁नारायण	-9.76318
▁अप	-9.76322
▁हेनरी	-9.76342
▁मिश्रण	-9.76365
▁गृह	-9.76392
▁नेहरू	-9.76468
▁प्रजातियों	-9.76476
▁पसंद	-9.76539
▁)	-9.76562
बे	-9.76807
▁अंततः	-9.76842
O	-9.76842
es	-9.76902
▁मानसिक	-9.76915
▁गु	-9.76941
▁गणित	-9.7701
▁दर्ज	-9.77021
▁आपको	-9.77059
▁ज़्यादा	-9.77081
दास	-9.77097
▁प्रसारण	-9.77105
▁प्रतीत	-9.77155
▁कैसे	-9.77166
▁आकर्षित	-9.77169
हर	-9.77174
▁प्राप्ति	-9.7723
ड़ा	-9.77353
▁वैश्विक	-9.77385
वाला	-9.77412
ेशन	-9.77512
वाली	-9.77587
▁बीज	-9.77602
▁चार्ल्स	-9.7767
▁अभाव	-9.77737
▁समर्पित	-9.77876
▁पहुंच	-9.77895
▁ग्रंथों	-9.78012
▁दूध	-9.78065
▁महाराज	-9.78081
▁नगला	-9.78151
▁सैनिकों	-9.78204
▁परम	-9.78236
▁मनाया	-9.78255
▁देकर	-9.78352
▁अस्पताल	-9.78405
▁W	-9.78418
▁*	-9.78458
▁यूनानी	-9.78458
▁भुगतान	-9.78467
एम	-9.78474
▁खाद्य	-9.786
▁--	-9.78615
▁परिभाषा	-9.78794
यां	-9.7885
▁डॉ	-9.78971
▁दिल	-9.79007
लैंड	-9.79008
▁साहित्यकार	-9.79019
▁तीनों	-9.79026
▁E	-9.79029
▁रोड	-9.79157
▁पड़	-9.79194
▁साबित	-9.79309
▁be	-9.79335
15	-9.79377
रु	-9.79402
▁पति	-9.79467
▁राजमार्ग	-9.79495
▁लिखित	-9.79498
▁ड	-9.79587
▁विज्ञापन	-9.79632
▁लकड़ी	-9.79664
▁ऊँचाई	-9.79886
th	-9.79897
▁दिसंबर	-9.80025
इन	-9.80064
▁भक्ति	-9.80068
▁चलने	-9.80279
▁विधायक	-9.803
ंक	-9.80324
▁यहीं	-9.80372
▁महत्त्वपूर्ण	-9.80393
्यु	-9.804
▁भेद	-9.80429
▁आंतरिक	-9.80487
20	-9.80517
▁छूटत	-9.8066
▁दु	-9.80703
▁60	-9.80793
▁ठोस	-9.8082
▁खेती	-9.80891
▁वै	-9.80974
▁परिवहन	-9.81024
▁बढ़ती	-9.81027
▁जाकर	-9.8116
▁वृक्ष	-9.81196
▁स्नातक	-9.81199
′′	-9.8123
▁जिनक	-9.81247
▁निकाले	-9.81279
▁भौगोलिक	-9.81353
▁तभी	-9.81398
▁वर्गीकरण	-9.81454
▁आकर	-9.81481
िम	-9.81549
r	-9.81559
करण	-9.81616
यें	-9.81685
▁अनिवार्य	-9.8171
▁अन्त	-9.81963
▁गुणवत्ता	-9.8199
▁गिर	-9.82037
▁साहित्यिक	-9.82042
▁T	-9.82097
▁छात्रों	-9.82149
▁इमारत	-9.82258
▁बनाते	-9.82319
▁इंडियन	-9.82357
▁स्पेन	-9.82358
▁नेशनल	-9.82371
▁चूंकि	-9.82407
▁नवंबर	-9.82409
यो	-9.8245
▁निगम	-9.82457
▁मानी	-9.82474
लर	-9.825
▁मै	-9.82514
वां	-9.82549
▁लो	-9.82703
▁मंत्रालय	-9.82791
▁0	-9.8284
▁गुणों	-9.82843
▁चयन	-9.82903
▁आस	-9.8292
▁लाया	-9.82927
▁विलियम	-9.82962
▁बिजली	-9.82962
▁पो	-9.82972
दे	-9.82975
▁वनस्पति	-9.83039
याँ	-9.8309
▁निवेश	-9.83092
▁रखना	-9.83132
▁रोम	-9.8319
▁करवाया	-9.83222
▁1970	-9.83251
▁R	-9.83267
▁1999	-9.83354
ड़ी	-9.83368
▁इतनी	-9.83389
▁मुगल	-9.83404
▁1947	-9.83438
▁धारण	-9.8345
▁बाबा	-9.83499
िय	-9.83524
k	-9.83528
▁200	-9.83575
▁अभिनेत्री	-9.8362
▁उपग्रह	-9.83643
re	-9.83697
▁औपचारिक	-9.83714
▁इटली	-9.8372
▁परिस्थितियों	-9.83721
▁सामान्यतः	-9.83741
▁सर्वेक्षण	-9.83764
▁चुने	-9.83825
स्त	-9.83889
▁तीसरी	-9.8391
▁अधिकतम	-9.83941
▁छत्तीसगढ़	-9.83958
▁चली	-9.83964
▁आरोप	-9.84067
▁अभ्यास	-9.84091
▁त्वचा	-9.84186
▁जानी	-9.84201
▁एल्बम	-9.84214
ान	-9.84254
▁ऋण	-9.84345
▁द्रव	-9.84434
ेट	-9.84445
▁सिख	-9.84482
▁80	-9.845
▁जोड़	-9.84573
कालीन	-9.84578
ष्ट	-9.84633
मु	-9.84649
▁1998	-9.84664
वान	-9.84668
▁ताल	-9.84739
▁करे	-9.84828
▁पेड़	-9.84904
▁1.	-9.8492
▁राजाओं	-9.84999
▁बिल	-9.85013
▁सिद्धांतों	-9.8504
▁तीर्थ	-9.85063
रस	-9.85066
▁अवधारणा	-9.85194
M	-9.8525
धीरे	-9.85347
▁N	-9.85492
ंत	-9.855
▁बाकी	-9.85535
▁विरोधी	-9.8556
▁गा	-9.85637
en	-9.8581
ची	-9.85825
▁काफ़ी	-9.85849
▁विद्वान	-9.85859
▁मंगल	-9.8596
▁खगोल	-9.85996
तः	-9.86018
▁फीट	-9.86054
टो	-9.86118
▁लाने	-9.86202
▁बनाता	-9.86311
▁निर्देशक	-9.86436
▁बदलाव	-9.86439
▁शिखर	-9.86477
पू	-9.86642
▁L	-9.86784
▁कलियुग	-9.86863
चा	-9.86866
▁विविधता	-9.86888
▁इंच	-9.87064
▁दान	-9.87113
▁आपूर्ति	-9.87153
▁G	-9.87184
▁खाने	-9.87254
▁पारित	-9.87312
▁सलाह	-9.87499
▁ऋषि	-9.87517
हि	-9.87547
▁भाषाएँ	-9.87675
▁प्रो	-9.87696
▁2.	-9.87762
▁पि	-9.87765
र्ड	-9.8778
▁प्रेस	-9.87791
र्क	-9.87836
▁निभाई	-9.87954
▁चलती	-9.87997
▁अल्मोड़ा	-9.88033
▁मुसलमानों	-9.88035
▁कदम	-9.88075
▁जीन	-9.881
▁बनाकर	-9.88136
▁काशी	-9.88138
युक्त	-9.88196
▁1960	-9.88235
▁होंगे	-9.88311
▁सैन	-9.88408
▁मुख	-9.88441
▁उपकरणों	-9.88452
▁सामान	-9.88523
▁बिक्री	-9.88526
▁अकबर	-9.8858
▁हद	-9.88619
▁विद्या	-9.88631
ही	-9.88637
▁प्रगति	-9.88642
शास्त्र	-9.88656
▁ग्रीन	-9.88682
मि	-9.88785
▁रोकने	-9.88799
▁हटा	-9.88824
▁मी	-9.89015
▁संदेश	-9.89038
▁यानि	-9.89054
▁गेम	-9.89302
▁1950	-9.89325
▁अध्याय	-9.89357
▁खर्च	-9.89392
▁लिंग	-9.8949
▁सफेद	-9.89579
▁ऊपरी	-9.89708
▁तृतीय	-9.89725
▁बेल	-9.89768
▁हस्ताक्षर	-9.89815
▁उत्पादों	-9.89854
ौ	-9.89865
▁दंड	-9.89876
हे	-9.89889
▁वितरण	-9.89895
▁लौट	-9.89986
▁इस्पात	-9.89995
▁पुष्टि	-9.90045
▁शर्मा	-9.90055
▁मोटर	-9.90099
ic	-9.90119
▁हाथों	-9.90138
▁हा	-9.90252
▁पद्म	-9.90305
▁वेद	-9.90338
▁बढ़ाने	-9.90438
छ	-9.90452
▁जाय	-9.90552
▁महात्मा	-9.90598
▁2017	-9.90599
l	-9.90795
दान	-9.90802
▁दैनिक	-9.90826
दो	-9.90831
▁पुरुषों	-9.90904
▁संबंधों	-9.90916
▁उच्चारण	-9.90919
▁जापानी	-9.90974
िनी	-9.90991
▁त्याग	-9.91004
ऊ	-9.9104
▁दार्शनिक	-9.91064
▁मिश्र	-9.91156
→	-9.91231
▁पदक	-9.91269
ल्	-9.91281
▁नयी	-9.91389
र्न	-9.91402
▁पृष्ठ	-9.91453
▁निर्वाचित	-9.91497
▁निवासी	-9.91513
▁35	-9.91524
▁बढ़ने	-9.91545
▁तथ्य	-9.91576
▁लेना	-9.91646
h	-9.91744
▁हुये	-9.91845
▁रिलीज़	-9.91947
▁for	-9.92118
▁यूनाइटेड	-9.92173
▁प्रतिनिधि	-9.92206
▁समानता	-9.92304
▁गलत	-9.9234
▁महसूस	-9.92342
▁V	-9.92357
▁आर्य	-9.9239
▁पट्टी	-9.92464
▁m	-9.92478
▁अक्षर	-9.92544
▁कार्यक्रमों	-9.92545
▁तीसरा	-9.92557
▁विकल्प	-9.92575
▁मथुरा	-9.92615
▁बीस	-9.92833
▁जयपुर	-9.92834
▁इंजीनियरिंग	-9.92931
▁बा	-9.92954
▁पाठ	-9.92955
▁व्यंजन	-9.93003
▁तारों	-9.93057
▁वैसे	-9.9314
▁शंकर	-9.93267
फ़र्ड	-9.9327
▁चंद्र	-9.93277
ख़	-9.93322
▁नुकसान	-9.93372
▁जैविक	-9.93591
ांग	-9.93612
▁फा	-9.93643
▁मारे	-9.93664
▁रु	-9.93701
▁अग्नि	-9.93708
▁विलय	-9.93806
▁आत्म	-9.93844
▁तारे	-9.93878
ाना	-9.93992
▁नो	-9.94011
▁रखे	-9.94048
▁पठार	-9.94055
▁गाने	-9.94066
▁उच्चतम	-9.94139
▁लगते	-9.94147
▁लगती	-9.94244
▁बेटे	-9.94341
▁पहाड़	-9.94364
▁सुझाव	-9.94417
मर	-9.94495
▁तनाव	-9.94531
▁संस्थापक	-9.94685
्ड	-9.9472
डि	-9.9475
▁असम	-9.94839
▁बह	-9.94901
▁गौतम	-9.94939
▁बचपन	-9.94942
ेस	-9.94944
ल्स	-9.94967
्ज़	-9.95087
▁जाये	-9.95114
▁अवशेष	-9.95147
▁चाहता	-9.95286
▁हूँ	-9.95367
▁निरंतर	-9.95369
▁कन्नौज	-9.95391
▁पहुंचा	-9.95412
▁सारी	-9.95419
▁हमले	-9.95428
▁मुख्यमंत्री	-9.95474
▁बढ़ावा	-9.95491
▁संस्कार	-9.95499
▁समाधान	-9.95676
▁खेला	-9.95713
▁लिखने	-9.95791
▁अर्थशास्त्र	-9.95889
us	-9.95895
मय	-9.96129
▁आजकल	-9.96139
▁शासकों	-9.96226
पिता	-9.9625
▁मिश्रित	-9.96261
▁हि	-9.96269
ेर	-9.9628
▁स्मारक	-9.96341
▁व्यक्तित्व	-9.96371
▁प्रयत्न	-9.96377
▁अलीगढ़	-9.96435
बद्ध	-9.96458
▁फ़	-9.96495
▁देवताओं	-9.96498
क़	-9.9652
▁जूलियन	-9.9654
▁वर्ल्ड	-9.96609
▁यंत्र	-9.96665
ेड	-9.96673
ंच	-9.96684
था	-9.96705
▁बहन	-9.96741
▁खा	-9.96748
▁टाइम्स	-9.96774
▁वाहन	-9.9688
क्षेत्र	-9.97007
▁आकर्षण	-9.9707
पे	-9.97101
▁खाड़ी	-9.97173
▁विकिरण	-9.97279
▁ऊँचा	-9.97283
▁पौधे	-9.97352
▁पं	-9.97366
▁त्रि	-9.97474
▁प्रेरणा	-9.97498
▁पुस्तकों	-9.97523
▁प्रबंध	-9.97573
ौर	-9.97648
ोन	-9.9768
▁डर	-9.97709
टे	-9.97737
▁प्राणी	-9.97756
▁मिशन	-9.97801
▁किरदार	-9.97816
▁अशोक	-9.97886
▁कक्षा	-9.97947
▁करेंगे	-9.98001
▁प्रधानमन्त्री	-9.98032
▁निकाला	-9.98042
▁बदले	-9.98049
▁बेह	-9.98058
▁आहार	-9.98084
▁रॉक	-9.98245
▁बु	-9.98296
▁कल्याण	-9.98346
q	-9.98358
▁फुटबॉल	-9.98358
खा	-9.9839
▁डाल	-9.98481
▁निर्धारण	-9.98491
तो	-9.98493
▁समीप	-9.98647
▁इसलिये	-9.98684
▁गोरखपुर	-9.98798
▁महाराजा	-9.98836
निक	-9.9895
▁गईं	-9.98979
▁संहिता	-9.99067
ar	-9.99103
▁विक्रमी	-9.99141
▁बालक	-9.9929
शी	-9.99306
▁काले	-9.99339
▁हाइड्रोजन	-9.99344
▁रुचि	-9.99351
भूत	-9.99356
▁हरियाणा	-9.9939
{	-9.99403
▁सुन्दर	-9.99561
▁कराने	-9.9957
▁समझने	-9.99602
▁जोड़ा	-9.99604
▁कानूनी	-9.99648
▁कि॰मी॰	-9.99671
▁फ़िल्मों	-9.99707
▁कै	-9.9971
▁फ़रवरी	-9.99781
▁प्रतिमा	-9.9991
▁मंदिरों	-9.99929
▁जॉर्ज	-9.99948
▁सका	-9.99958
▁वैज्ञानिकों	-9.99985
▁अधिकारों	-10.0002
▁ऋतु	-10.0005
▁अनुकूल	-10.0006
▁रोगों	-10.001
▁दर्जा	-10.0017
▁दर्द	-10.0026
▁संज्ञा	-10.0027
▁सुख	-10.0034
T	-10.0034
▁निकाल	-10.0039
▁प्रसारित	-10.0042
▁जंगल	-10.0044
रण	-10.0047
कर्ता	-10.005
▁टूर्नामेंट	-10.0056
▁एक्सप्रेस	-10.0056
▁संगठनों	-10.0059
▁अन्तर्राष्ट्रीय	-10.0061
▁होटल	-10.0065
▁नैनीताल	-10.0067
लू	-10.0069
▁कम्पनी	-10.0071
▁तरल	-10.0079
्या	-10.0079
▁स्टार	-10.0085
▁मुझे	-10.0088
▁किंगडम	-10.0089
▁ति	-10.009
▁आश्रम	-10.009
निया	-10.0097
▁चाहिये	-10.01
▁दीवार	-10.0104
▁बचा	-10.0111
▁चाहे	-10.0111
पास	-10.0118
लेण्डर	-10.0123
▁खराब	-10.0127
▁रचनाओं	-10.0127
▁बर्फ	-10.0129
▁प्लेट	-10.013
▁कार्ड	-10.0131
▁85.144	-10.0145
▁25.611	-10.0145
▁बारह	-10.0146
▁प्रथा	-10.016
▁उड़ान	-10.0164
▁पक्षी	-10.0166
▁संबद्ध	-10.0168
▁अव	-10.017
▁उदय	-10.017
▁रूपों	-10.0173
वाल	-10.0182
▁मैरी	-10.0185
फा	-10.0189
▁तिब्बत	-10.0192
▁इसको	-10.0193
▁केंद्रित	-10.0194
▁स्त्री	-10.0194
▁कर्मचारियों	-10.0201
▁मल	-10.0204
▁फैल	-10.0209
ाव	-10.0223
▁जगत	-10.0224
▁ओलंपिक	-10.0224
▁आकाश	-10.0235
▁वेल्स	-10.024
▁पशुओं	-10.0252
G	-10.0264
▁सकें	-10.0268
▁किला	-10.0278
ुआ	-10.0279
▁पंजाबी	-10.0279
ro	-10.028
▁सुपर	-10.0282
▁पीढ़ी	-10.0282
पि	-10.0288
▁मशीन	-10.0289
an	-10.0293
▁पंच	-10.0295
▁सजा	-10.0296
▁कठोर	-10.0303
▁रास्ते	-10.0303
▁मैचों	-10.0311
पत्र	-10.0321
▁अमर	-10.0324
H	-10.0326
▁1991	-10.0326
▁जोर	-10.0341
▁निर्देशन	-10.0342
▁नवीन	-10.0344
कृत	-10.0345
ri	-10.0347
▁बंगाली	-10.0349
▁यान	-10.0358
▁घाट	-10.036
▁टेलीविजन	-10.036
▁निधन	-10.0361
▁पौड़ी	-10.0372
le	-10.0374
▁बनाना	-10.0376
▁व्यापारिक	-10.0378
▁बाज़ार	-10.0382
▁यात्री	-10.0397
▁कड़ी	-10.0398
घ	-10.0403
▁हॉल	-10.0408
st	-10.0411
▁पंचाग	-10.0417
▁न्यूयॉर्क	-10.0418
▁द्रव्यमान	-10.0418
त्र	-10.0426
▁शेयर	-10.0426
▁प्रार्थना	-10.0441
तु	-10.0442
▁महाद्वीप	-10.0447
▁लेखकों	-10.0473
▁गूगल	-10.0476
▁स्थलों	-10.0483
▁शीघ्र	-10.0488
▁श्रेय	-10.0489
▁कारक	-10.0492
▁हाई	-10.0508
ज़ा	-10.0509
ch	-10.051
▁स्कॉटलैंड	-10.0511
शील	-10.0512
▁मेरे	-10.0522
▁लेती	-10.0522
▁तु	-10.0524
▁हिस्सों	-10.0534
▁अर्जुन	-10.0534
▁इलाज	-10.0535
▁देखी	-10.0536
▁शेर	-10.0545
▁अनुरूप	-10.0547
दि	-10.0554
▁एशियाई	-10.0566
▁प्रोटीन	-10.0577
▁as	-10.0577
▁मंच	-10.0577
▁जानवरों	-10.0591
▁तथापि	-10.0608
ीकृत	-10.0623
▁घनत्व	-10.0629
▁3.	-10.063
▁नेताओं	-10.0636
x	-10.0643
हीन	-10.0645
्ट	-10.0645
चे	-10.0646
▁न्यूटन	-10.0655
▁दौरे	-10.0655
▁पौराणिक	-10.0656
▁सदन	-10.0661
▁हजारों	-10.0667
▁यातायात	-10.0675
ॅ	-10.0679
लिंग	-10.0681
▁संयोजन	-10.0687
▁78.06	-10.0698
▁बैठक	-10.07
▁वजन	-10.0705
▁27.89	-10.0722
▁तुरंत	-10.0722
▁कल	-10.0723
ूर	-10.0726
▁संस्थाओं	-10.0729
on	-10.0731
▁बस्ती	-10.0735
▁न्यायाधीश	-10.0736
▁ईस्ट	-10.0744
▁जल्द	-10.0744
▁अवश्य	-10.0746
▁मुसलमान	-10.0747
▁तारा	-10.075
▁कैथोलिक	-10.0752
▁उत्कृष्ट	-10.0765
▁लंबा	-10.0768
▁कब्जा	-10.0773
▁दोष	-10.0779
▁संकट	-10.0779
सो	-10.0784
▁श्वेत	-10.0786
▁आविष्कार	-10.0797
▁मुक्ति	-10.0801
▁1996	-10.0818
▁70	-10.0822
▁वित्त	-10.0822
▁पंडित	-10.0824
ेश	-10.083
▁आशा	-10.0831
▁तिथि	-10.0833
लोक	-10.0834
▁चुनावों	-10.0836
▁समीक्षा	-10.0837
▁जातक	-10.0837
▁लिमिटेड	-10.0842
अर	-10.0844
▁यु	-10.0848
मल	-10.0849
मेन	-10.0852
▁चन्द्र	-10.0861
स्थ	-10.0862
▁शक्तियों	-10.0862
▁आयरलैंड	-10.0866
▁1997	-10.0867
▁प्रभावशाली	-10.0867
▁डेटा	-10.0881
▁प्राणियों	-10.0883
▁उत्तराधिकारी	-10.0883
▁झ	-10.0885
▁प्रजनन	-10.089
श्	-10.0897
है	-10.0904
-2	-10.0905
▁जि	-10.0907
▁देखकर	-10.091
▁दोनो	-10.0911
▁बुद्धि	-10.0911
▁दशा	-10.0914
▁मांस	-10.092
▁कोर्ट	-10.0923
▁फ्रांसीसी	-10.0926
▁विद्यमान	-10.0926
ाय	-10.0934
▁लक्षणों	-10.0938
▁पाकिस्तानी	-10.0946
जल	-10.0949
वल	-10.0951
▁ऑक्सीजन	-10.0951
▁हानि	-10.0951
▁वर	-10.0952
▁राव	-10.0954
▁समझौते	-10.0963
ास	-10.0965
बर्ग	-10.0967
▁स्वामित्व	-10.0971
▁पतन	-10.0976
▁मगध	-10.0984
▁सुनिश्चित	-10.0987
▁क्यों	-10.0988
▁असफल	-10.0988
▁आध्यात्मिक	-10.0995
▁अवतार	-10.1
▁गवर्नर	-10.1003
▁b	-10.1009
▁गायक	-10.1015
भाव	-10.1043
▁एयर	-10.1048
17	-10.105
▁निर्देशित	-10.1055
▁इस्लामी	-10.1063
ल्ड	-10.1063
▁औ	-10.1063
▁कण	-10.1073
▁दौरा	-10.108
▁व्याकरण	-10.1081
स्प	-10.109
▁परम्परा	-10.1094
▁कृत्रिम	-10.1094
▁निर्यात	-10.1095
िश	-10.1097
▁गहरा	-10.1106
▁गण	-10.1107
▁दें	-10.1113
25	-10.1117
▁निर्देश	-10.1121
▁मैक	-10.1125
भर	-10.1131
▁इलाकों	-10.1135
▁संग्राम	-10.1148
▁लोगो	-10.1149
यन	-10.1159
मेंट	-10.1163
▁90	-10.1167
पश्चिम	-10.1172
▁मनुष्यों	-10.1172
▁1992	-10.1172
हार	-10.1176
▁तंत्रिका	-10.1178
▁आगमन	-10.1178
▁जंगली	-10.1184
▁स्थानांतरित	-10.1184
▁देखे	-10.1188
▁डिजिटल	-10.1191
L	-10.1192
▁फैसला	-10.1197
▁सकारात्मक	-10.1197
र्ट	-10.1205
पति	-10.1206
12	-10.1207
ेज	-10.1208
▁खनिज	-10.1211
11	-10.1211
▁मास	-10.1213
▁अपनाया	-10.122
▁चावल	-10.1221
▁बहुमत	-10.1222
▁बाह्य	-10.1222
▁तार	-10.123
▁काली	-10.1234
▁पैर	-10.1236
▁सदा	-10.1236
▁कम्प्यूटर	-10.1241
शक्ति	-10.1241
▁दवा	-10.1248
ाँ	-10.1252
्यू	-10.1253
▁जरूर	-10.1259
▁काउंटी	-10.1265
▁मछली	-10.1266
▁प्रतिष्ठित	-10.1267
▁पाये	-10.1269
▁शि	-10.1271
▁रुपये	-10.1272
▁प्रक्रियाओं	-10.1277
▁जितन	-10.1278
▁मशहूर	-10.1284
▁1930	-10.1286
▁नैतिक	-10.1287
▁पै	-10.1287
ra	-10.1288
30	-10.1289
▁चित्रण	-10.1293
▁जल्दी	-10.1294
▁भूषण	-10.1305
▁by	-10.1309
▁नज़र	-10.131
▁अदालत	-10.1311
▁नील	-10.1311
▁संभवतः	-10.1312
▁पू	-10.1315
▁थोड़ा	-10.1322
ार्थ	-10.1326
▁क्षति	-10.1326
दु	-10.1343
▁प्रणालियों	-10.1345
▁कुरान	-10.1352
▁मुश्किल	-10.1354
▁बसा	-10.1359
18	-10.1364
▁धारणा	-10.1365
▁राज्यपाल	-10.1367
▁1962	-10.1373
▁मह	-10.1376
▁लाहौर	-10.1385
it	-10.1393
▁;	-10.1398
▁श्रम	-10.1403
▁जिलों	-10.1412
▁विजेता	-10.1414
सार	-10.1416
▁समृद्ध	-10.1418
यु	-10.1419
जर	-10.1423
▁रोगियों	-10.1426
▁an	-10.1427
▁गुना	-10.1428
▁देखें	-10.1428
▁निदेशक	-10.1439
राव	-10.1444
रिस	-10.1445
▁यानी	-10.1445
▁विशेषकर	-10.1452
देश	-10.1456
▁विचारधारा	-10.146
वाँ	-10.1461
▁परस्पर	-10.1462
▁स्टूडियो	-10.1462
▁इन्	-10.1463
▁इन्हीं	-10.1464
▁संगम	-10.1466
▁यज्ञ	-10.1474
▁was	-10.1475
▁लम्बी	-10.1475
▁चलकर	-10.1488
▁कक्ष	-10.1495
▁1000	-10.1501
▁हरा	-10.1513
रों	-10.1514
▁क्रमशः	-10.1514
▁गरम	-10.1522
▁सुबह	-10.1522
▁हिन्द	-10.1526
▁कर्मचारी	-10.1526
▁बोलने	-10.1527
ोस	-10.1528
▁नंबर	-10.1529
▁जु	-10.153
▁25.15	-10.1539
▁प्रदेशों	-10.154
▁शुक्ल	-10.1541
▁होल	-10.1543
▁मद्रास	-10.1544
▁वाणिज्यिक	-10.1544
▁500	-10.1549
▁आवाज	-10.1551
▁खूबसूरत	-10.1552
▁अग्रणी	-10.1555
भाग	-10.1555
▁दि	-10.1556
ज़ी	-10.1559
▁द्वि	-10.1563
▁धरती	-10.1566
▁साक्षरता	-10.1566
▁बाग	-10.1576
▁परिचय	-10.1578
▁पु	-10.1578
▁वर्गों	-10.1578
▁पर्यटक	-10.1581
▁सोच	-10.1582
लिन	-10.1585
▁उत्	-10.1585
▁पुर	-10.1587
▁सोने	-10.1591
W	-10.1592
▁बनते	-10.1598
िस्ट	-10.1604
▁अर्ध	-10.1605
▁री	-10.1607
▁मना	-10.161
▁आदमी	-10.1611
▁भा	-10.1612
▁माप	-10.1615
▁रामायण	-10.1622
कला	-10.1624
स्य	-10.1631
▁कलकत्ता	-10.1632
▁जवाब	-10.1637
▁32	-10.1653
▁45	-10.1653
कुल	-10.1661
▁संभावित	-10.1669
ेल	-10.1677
▁प्रतिभा	-10.168
मत	-10.1682
▁रहना	-10.1682
▁प्रवृत्ति	-10.1683
▁स्टेट	-10.1683
▁किताब	-10.1685
▁सद	-10.1687
▁दर्शकों	-10.1689
▁चिह्न	-10.1695
▁25.45	-10.1695
▁शहरी	-10.1696
▁मादा	-10.1697
▁टाउन	-10.1697
▁बांध	-10.1706
▁that	-10.1708
▁छः	-10.171
▁टन	-10.1717
▁कपूर	-10.1724
▁मौलिक	-10.1738
▁संघीय	-10.1739
▁आवृत्ति	-10.1741
▁परंपरागत	-10.1744
▁गीता	-10.175
डन	-10.175
▁संशोधन	-10.1751
▁आंध्र	-10.1753
▁दरबार	-10.1758
्री	-10.1762
▁समकालीन	-10.1762
▁वस्त्र	-10.1771
▁मुताबिक	-10.1772
▁संपन्न	-10.1774
डर	-10.1778
▁पड़ी	-10.1778
िड	-10.178
▁सालों	-10.1781
▁डेविड	-10.1787
यी	-10.1796
पुरा	-10.1798
▁प्राण	-10.1806
▁शुरूआत	-10.1808
▁O	-10.1808
▁नियुक्ति	-10.1813
▁re	-10.1815
▁कार्यकाल	-10.1817
▁सेवन	-10.1818
▁with	-10.1819
▁कार्बनिक	-10.1819
▁जोकि	-10.1822
▁ज्योति	-10.1823
▁बेटी	-10.1825
▁कबीर	-10.1827
28	-10.1828
▁निदान	-10.1828
▁खरीद	-10.1832
▁आपने	-10.1833
ंद	-10.1836
पूर्वक	-10.1836
16	-10.1837
▁प्रोग्राम	-10.184
▁अभिव्यक्ति	-10.1844
▁c	-10.1845
ोर	-10.1846
▁ज्योतिष	-10.1851
▁81.85	-10.1853
▁व्यावहारिक	-10.186
▁जिम्मेदार	-10.187
▁बुनियादी	-10.187
▁चौ	-10.1875
▁टू	-10.1876
धर	-10.1876
्म	-10.1877
▁साक्षात्कार	-10.1885
▁फ्रेंच	-10.1893
▁जुड़ी	-10.1895
▁अंतर्	-10.1904
भिन्न	-10.1921
भूमि	-10.1921
▁सहारा	-10.1924
▁मनोविज्ञान	-10.193
▁सरस्वती	-10.1933
▁तरीकों	-10.1933
▁1995	-10.1934
धा	-10.1945
▁गेंद	-10.1946
▁संस्थानों	-10.1946
▁उद्योगों	-10.1947
▁डा	-10.1955
▁कृष्णा	-10.1955
▁सार	-10.1957
▁प्रावधान	-10.1974
▁de	-10.1975
am	-10.1976
▁ग्रेट	-10.1977
▁यथा	-10.1984
▁दाब	-10.1985
गन	-10.1988
▁करनी	-10.1989
▁रॉयल	-10.1993
▁उठा	-10.1995
्व	-10.201
न्न	-10.201
▁अफ़्रीका	-10.2015
▁आंशिक	-10.2028
▁स्टेडियम	-10.2028
बि	-10.203
▁कवियों	-10.2033
▁पुनर्	-10.2034
ियम	-10.2036
▁अल्प	-10.2038
ग़	-10.2046
▁आपस	-10.2049
▁p	-10.2051
▁सचिव	-10.2052
▁मनोरंजन	-10.2055
▁पड़े	-10.2063
▁पर्व	-10.2064
▁उपाय	-10.2078
▁पुणे	-10.2083
▁ज़िला	-10.2089
▁कौन	-10.2092
▁विरासत	-10.2096
मेल	-10.21
▁बम	-10.2102
▁कॉ	-10.2107
गे	-10.2108
▁n	-10.2109
▁प्रोत्साहित	-10.2109
▁मध्यम	-10.211
▁ग्रीक	-10.2112
▁प्रतिरोध	-10.212
▁उम्मीद	-10.2134
▁संक्षिप्त	-10.2137
श्री	-10.2142
▁इसीलिए	-10.215
▁प्रशंसा	-10.215
▁बसे	-10.2158
▁घिरा	-10.2158
▁सम्बन्धित	-10.2166
▁परत	-10.2166
वास	-10.2169
▁व्	-10.2174
▁आपके	-10.2178
▁निहित	-10.2179
ग्	-10.2182
बो	-10.2183
▁बोस	-10.2187
▁भेज	-10.2189
▁शून्य	-10.22
रत	-10.22
R	-10.2211
▁बै	-10.2214
▁क्रमश	-10.2218
▁कमजोर	-10.223
ation	-10.223
ाइल	-10.2235
▁मानवीय	-10.2236
ur	-10.2237
▁जिनसे	-10.2244
▁पर्यटकों	-10.2258
▁छत	-10.2261
▁प्रोफेसर	-10.2265
▁सुभाष	-10.2265
▁इन्द्र	-10.2272
▁खाना	-10.2277
जि	-10.2286
▁टर्मिनल	-10.2288
▁वेस्ट	-10.2288
▁पक्षियों	-10.2292
el	-10.2303
▁स्तंभ	-10.2303
▁प्रयासों	-10.2305
▁मोहम्मद	-10.2306
▁निर्देशांक	-10.2306
▁स्वर्ग	-10.2306
ad	-10.2311
▁बीमा	-10.2312
समय	-10.2313
▁चिकित्सक	-10.2313
▁1989	-10.2317
▁जितना	-10.2327
▁संपादक	-10.2332
▁निकलने	-10.2342
▁बोल	-10.2344
▁जाँच	-10.2348
▁पेट	-10.2349
▁शुष्क	-10.235
▁मैन	-10.2353
▁रीति	-10.2354
▁वर्मा	-10.2357
वेल	-10.2365
▁लॉ	-10.237
ंज	-10.2373
▁घरों	-10.2376
▁गहराई	-10.2378
▁ज़	-10.2381
▁उन्नत	-10.2384
▁संप्रदाय	-10.2385
▁वास्तुकला	-10.2387
▁बहती	-10.239
▁एफ	-10.2391
टिक	-10.2398
▁नौसेना	-10.24
▁1948	-10.2401
▁शास्त्रीय	-10.2416
▁$	-10.2417
▁1956	-10.2429
▁सृष्टि	-10.243
▁ग्राहक	-10.2435
▁यहूदी	-10.244
▁1971	-10.2443
▁अणु	-10.2446
भारतीय	-10.2447
क्ष	-10.2462
▁छोर	-10.2463
▁रहस्य	-10.2467
▁हरे	-10.2469
▁रो	-10.247
ोप	-10.2472
...	-10.2473
▁संसाधन	-10.2474
▁हिंसा	-10.2483
▁यमुना	-10.2483
▁शिक्षण	-10.2496
▁पुस्तकें	-10.2496
▁बच	-10.2496
▁कहानियों	-10.2499
▁सेंटर	-10.2508
▁पकड़	-10.2513
पु	-10.252
▁सहज	-10.2521
▁बाघ	-10.2522
▁घ	-10.2526
▁पुत्री	-10.2532
म्प	-10.2537
▁प्रस्तावित	-10.2544
▁तुम	-10.2546
▁नमक	-10.255
▁महीनों	-10.2553
▁सू	-10.2553
सम	-10.2554
▁1994	-10.2557
▁कही	-10.2558
▁आयुर्वेद	-10.2559
▁रेड	-10.2564
▁संतान	-10.2568
ृ	-10.2569
▁4.	-10.257
▁भक्त	-10.2572
com	-10.2573
z	-10.2576
▁एकीकृत	-10.2577
▁गद्य	-10.2588
▁अहमद	-10.2588
▁फाइनल	-10.2589
▁85	-10.259
▁जवाहर	-10.2593
न्द	-10.2595
बाई	-10.2597
▁पहुँचा	-10.2598
▁चलाने	-10.2598
▁खत्म	-10.2599
▁कपड़े	-10.26
▁इतिहासकार	-10.2601
▁वर्गीकृत	-10.2602
▁राष्ट्रों	-10.2609
▁बचाने	-10.2613
▁विकिपीडिया	-10.2613
▁दूसरों	-10.2614
▁आईसीसी	-10.2615
न्त	-10.2615
▁सुल्तानपुर	-10.2625
▁पड़ने	-10.2627
40	-10.2631
▁नाग	-10.2638
▁जीवाणु	-10.2639
▁अंचल	-10.2642
▁बदला	-10.2645
▁बहादुर	-10.2654
▁बॉन्ड	-10.2657
▁लैटिन	-10.2657
50	-10.2657
▁ब्रह्मा	-10.2658
▁राजकुमार	-10.2662
कोट	-10.2667
▁मेरी	-10.2669
▁उत्सव	-10.2669
▁जायेगा	-10.2673
▁विभक्त	-10.2673
▁नायक	-10.2679
▁चाल	-10.2684
▁कहता	-10.2688
▁पाप	-10.269
ॉन	-10.269
▁कलाकारों	-10.269
▁रहीं	-10.2691
▁यांत्रिक	-10.2695
▁पाते	-10.2699
▁मठ	-10.2701
▁उपयोगकर्ता	-10.2704
▁दुर्लभ	-10.2705
धर्म	-10.271
▁दा	-10.2714
▁संसदीय	-10.2715
सू	-10.2715
▁कार्यरत	-10.2721
िए	-10.2722
▁कोश	-10.2722
▁बंदरगाह	-10.2722
▁पाल	-10.2723
▁शा	-10.2727
▁तमिलनाडु	-10.2729
▁किसान	-10.2732
▁अधि	-10.274
▁कीमत	-10.2745
▁पाठ्यक्रम	-10.2751
▁टूट	-10.2754
▁2018	-10.276
▁कोण	-10.2762
▁शिल्प	-10.2768
▁असर	-10.277
ग्राम	-10.2771
▁योग्यता	-10.2773
▁चलाया	-10.2783
▁अंगों	-10.2787
▁मापन	-10.2788
▁are	-10.2789
▁d	-10.2802
▁निष्कर्ष	-10.2803
▁कृत	-10.2803
▁भोज	-10.2804
णा	-10.2804
▁रत्न	-10.2804
हो	-10.2805
▁अंग्रेज	-10.2814
▁भरा	-10.2815
▁रास्ता	-10.2817
▁हमारी	-10.2817
▁पृथक	-10.2819
▁हनुमान	-10.282
▁नागरिकों	-10.2822
▁वसा	-10.2822
▁पीड़ित	-10.2827
▁हित	-10.2831
▁150	-10.2836
▁शासनकाल	-10.2838
ड़े	-10.2845
▁वरिष्ठ	-10.2861
▁x	-10.2864
▁तर	-10.2867
▁हिल	-10.2875
▁समाप्ति	-10.2876
▁बढ़ता	-10.2883
▁फारसी	-10.2885
▁प्रा	-10.2887
▁खुले	-10.2891
as	-10.2895
ट्ट	-10.2901
▁मालिक	-10.2903
▁बनती	-10.2908
▁गर्मी	-10.2915
▁साफ	-10.2923
14	-10.2924
लु	-10.2924
पद	-10.2929
▁कार्यकारी	-10.2931
V	-10.2934
▁घायल	-10.2934
te	-10.2939
▁गुजराती	-10.2939
22	-10.2941
▁प्रताप	-10.2948
▁मूल्यांकन	-10.2949
▁उष्णकटिबंधीय	-10.295
▁छवि	-10.2953
टिंग	-10.2954
▁कमल	-10.2955
▁हरि	-10.2962
▁नींव	-10.2964
▁मोहन	-10.2964
▁संरक्षित	-10.2965
▁मोदी	-10.2965
▁बनवाया	-10.2966
▁धारावाहिक	-10.2972
▁मौजूदा	-10.2974
▁शाम	-10.2982
बु	-10.2984
लै	-10.2987
▁बदलने	-10.2989
▁परिषद्	-10.2992
▁ख़ान	-10.2993
▁स्वभाव	-10.2994
सेन	-10.2996
घर	-10.2999
▁आवास	-10.2999
▁नामों	-10.3003
▁लम्बे	-10.3009
▁1993	-10.3009
▁खड़ा	-10.301
झ	-10.3014
▁शिशु	-10.3022
▁इलाके	-10.3024
▁तोड़	-10.3024
is	-10.3036
▁वायरस	-10.3036
▁हमीरपुर	-10.3039
▁पथ	-10.3039
▁उद्घाटन	-10.304
▁बताते	-10.3055
ha	-10.3057
▁उत्तम	-10.3061
▁स्थितियों	-10.3065
▁हथियार	-10.3067
▁मलयालम	-10.3071
▁चेतना	-10.3075
▁पुस्तकालय	-10.3076
ादि	-10.3078
▁सेवाएं	-10.3079
▁भाँति	-10.3102
ia	-10.3103
▁शीत	-10.3108
▁व्रत	-10.3109
▁देर	-10.3112
▁फॉर	-10.3117
▁चंडीगढ़	-10.3119
ऐ	-10.312
▁पीठ	-10.3121
▁नजर	-10.3121
▁मुख्यत	-10.3129
▁खड़े	-10.313
▁300	-10.3134
▁हिम	-10.3134
▁नेपाली	-10.3136
▁शिष्य	-10.3137
लेट	-10.3139
▁प्रजाति	-10.3142
▁मोर	-10.3143
▁न्यूनतम	-10.3144
▁आजादी	-10.3147
▁पढ़ाई	-10.3148
▁घटक	-10.3152
▁कोरिया	-10.3166
▁चिंता	-10.3168
▁जीतने	-10.3168
▁सेट	-10.3177
ट्स	-10.3178
क्रम	-10.3189
\	-10.3189
▁देखभाल	-10.319
अप	-10.3191
▁अनुमानित	-10.3195
व्य	-10.3196
▁बनाती	-10.3197
▁यौन	-10.3198
▁नौकरी	-10.3202
▁टीमों	-10.3203
▁विस्फोट	-10.3204
▁कायम	-10.3205
▁सीट	-10.3205
▁स्नान	-10.3218
$	-10.3221
▁आइ	-10.3227
▁ज्वालामुखी	-10.323
▁सुविधाओं	-10.323
▁माइकल	-10.3232
न्ड	-10.3235
▁पराजित	-10.3235
▁नोबेल	-10.3236
▁आरंभिक	-10.3236
नर	-10.3241
▁उम्मीदवार	-10.3241
▁अभिलेख	-10.3241
त्त	-10.3243
▁गिरफ्तार	-10.3265
विल	-10.3265
at	-10.3265
▁कृति	-10.3266
▁उन्हीं	-10.3267
▁स्वीकृति	-10.3268
▁खाते	-10.3271
▁रा	-10.3278
▁पेरिस	-10.3283
▁चोट	-10.3289
▁सूरज	-10.3292
▁घास	-10.3299
▁महाविद्यालय	-10.3307
▁जनजाति	-10.3311
▁24.81	-10.3312
03	-10.3315
शु	-10.3321
▁34	-10.3322
▁निवासियों	-10.3327
▁कौशल	-10.3328
▁जंगलों	-10.3331
▁गौरव	-10.3333
▁मुम्बई	-10.3335
▁75	-10.334
▁गोली	-10.334
▁सहयोगी	-10.3342
▁विकेट	-10.3344
नाम	-10.3344
▁वेग	-10.3354
शि	-10.3354
भा	-10.3355
फर	-10.3356
▁हाथी	-10.3359
▁हास्य	-10.3359
▁श्रेष्ठ	-10.3365
▁चा	-10.337
▁उपमहाद्वीप	-10.3374
ान्त	-10.3386
स्टर	-10.3387
55	-10.3388
▁अनुयायी	-10.3389
▁दर्शाया	-10.3389
▁बजट	-10.3391
एच	-10.3392
▁शती	-10.3395
▁बांग्ला	-10.3395
▁टीका	-10.3399
▁स्वाभाविक	-10.3402
▁नीतियों	-10.341
▁तुर्क	-10.342
संग्रह	-10.3421
▁सम्	-10.3435
▁आकर्षक	-10.3436
▁विश्वयुद्ध	-10.3438
▁आकृति	-10.3443
▁ध	-10.3448
▁मैसूर	-10.3451
▁जोड़ने	-10.3451
▁अन्तिम	-10.3452
पो	-10.3453
ाइड	-10.3455
▁बचने	-10.3458
▁वाक्य	-10.3464
▁समझौता	-10.3467
▁शराब	-10.348
▁पटेल	-10.3484
▁पुष्प	-10.3486
▁ऑन	-10.349
▁दुर्घटना	-10.3495
33	-10.3498
▁अत्यन्त	-10.3499
▁गहरी	-10.3499
ाल	-10.3505
▁अमरीकी	-10.3506
▁भव्य	-10.3506
▁पाता	-10.3511
▁सांसद	-10.3514
▁कहलाते	-10.3514
▁गणेश	-10.3517
la	-10.3518
▁ग्राहकों	-10.3523
▁एड	-10.3523
र्म	-10.3527
▁उतर	-10.3531
▁निकालने	-10.3533
▁कमाई	-10.3539
▁गोवा	-10.354
▁फ़ारसी	-10.3545
▁संगठित	-10.3555
et	-10.3562
▁रखती	-10.3568
24	-10.3576
ाकार	-10.3579
▁गठबंधन	-10.3593
▁बॉलीवुड	-10.3593
▁सबूत	-10.3594
▁अकेले	-10.3596
▁चि	-10.3605
▁थ	-10.3608
▁जाएगी	-10.3613
▁मगर	-10.3619
5°27′	-10.3621
▁डच	-10.3622
▁तरीका	-10.3625
▁खोल	-10.3627
▁भूगोल	-10.3629
▁आसान	-10.3637
▁उपभोक्ता	-10.3638
▁मेला	-10.3638
▁कुशल	-10.364
▁भारतीयों	-10.3641
▁पायी	-10.3653
▁समा	-10.3656
▁औरंगाबाद	-10.3657
▁संवैधानिक	-10.3657
▁समाजशास्त्र	-10.3657
गल	-10.3668
प्ल	-10.3668
▁मजबूर	-10.3673
▁पॉल	-10.3677
▁मृत	-10.3682
▁1952	-10.3689
▁सिंगापुर	-10.3693
▁वैकल्पिक	-10.3693
▁जाया	-10.3695
फ्ट	-10.3703
▁शुल्क	-10.3704
ine	-10.3704
▁जानते	-10.3712
▁ईंधन	-10.3713
▁उपदेश	-10.3719
▁एचआईवी	-10.3721
▁श्रेणियों	-10.3721
▁ऑनलाइन	-10.3721
▁प्रतापगढ़	-10.3721
सिस	-10.3725
▁चरम	-10.3725
▁पैलेस	-10.3731
कर्म	-10.3731
▁33	-10.3739
▁समन्वय	-10.3741
▁पूंजी	-10.3749
▁अगल	-10.3752
▁चमक	-10.3752
▁व्यवस्थित	-10.3753
▁शांत	-10.376
▁विशेषज्ञ	-10.3764
13	-10.3764
▁समीकरण	-10.3768
▁गिरावट	-10.3769
▁राजस्व	-10.3771
▁साहब	-10.3772
▁ऊ	-10.3778
▁प्रबल	-10.3779
▁गतिविधि	-10.3783
▁ब्रांड	-10.3785
मार	-10.3792
▁ता	-10.3797
ir	-10.3798
▁नहर	-10.3802
▁जातीय	-10.3803
▁द्वीपों	-10.3805
▁भय	-10.3807
क्र	-10.3808
▁अमेरिकन	-10.382
त्य	-10.3825
-20	-10.3828
िट	-10.3831
▁बातचीत	-10.3833
▁1984	-10.3834
▁लगने	-10.3838
▁on	-10.3838
स्क	-10.3841
27	-10.3847
▁हिसाब	-10.385
▁भोपाल	-10.385
▁वंशज	-10.3853
05	-10.3856
रिक	-10.386
▁पेशेवर	-10.3863
▁अज्ञात	-10.3866
ंडा	-10.3874
▁धातुओं	-10.3877
▁नामकरण	-10.3878
▁संतुलन	-10.3882
▁अर्जित	-10.3884
्द	-10.3891
▁गयीं	-10.3893
▁प्रचलन	-10.3899
▁वें	-10.3913
▁हुसैन	-10.3915
▁गाय	-10.3915
▁किसानों	-10.3923
पूर	-10.3925
▁अस	-10.3926
▁हस्तक्षेप	-10.3931
▁अंकित	-10.3931
▁समक्ष	-10.3934
▁साथी	-10.3938
▁निश्चय	-10.3948
ाम	-10.3948
▁नकारात्मक	-10.3949
▁मूलतः	-10.3954
▁संवाद	-10.3955
द्	-10.3956
▁गर्भ	-10.396
▁ध्वज	-10.3963
▁बढ़ते	-10.3964
▁अर्	-10.3966
▁आवश्यकताओं	-10.3967
▁जातियाँ	-10.3967
w	-10.3968
▁नागपुर	-10.3972
▁अक्षांश	-10.3981
▁वक्त	-10.3982
▁लोहे	-10.3985
वो	-10.3987
▁संसाधनों	-10.3989
▁माँग	-10.3991
▁विशेषताओं	-10.3991
▁कप्तान	-10.3998
▁तूफान	-10.3998
▁36	-10.4004
▁पोस्ट	-10.4007
धारा	-10.4011
▁प्रवाहित	-10.4011
▁अदिलाबाद	-10.4013
▁प्रयोगशाला	-10.4016
▁कट	-10.4017
गण	-10.4028
▁परिक्रमा	-10.403
▁अभिक्रिया	-10.403
▁वचन	-10.4031
▁बोलते	-10.4034
▁खाँ	-10.4034
स्थान	-10.4041
▁पोप	-10.4042
▁बॉक्स	-10.4046
णी	-10.4048
▁1965	-10.4048
▁पोर्ट	-10.4049
▁डो	-10.4049
▁अंडे	-10.4052
▁जड़	-10.4059
▁खतरा	-10.4064
▁1920	-10.4067
धान	-10.4067
▁सारा	-10.4071
▁हु	-10.4072
▁ध्रुव	-10.4072
▁लोकप्रियता	-10.4081
▁मजरा	-10.4083
▁चू	-10.4084
▁सुर	-10.4088
▁परामर्श	-10.4088
▁पदों	-10.4092
▁मेरठ	-10.4096
29	-10.4097
▁चौथे	-10.4098
भि	-10.4102
▁from	-10.4113
▁ग्रेगोरी	-10.4113
▁समुदायों	-10.4114
▁काला	-10.4122
▁सरदार	-10.413
▁1972	-10.4131
▁क्रियाओं	-10.4147
▁1957	-10.4147
▁l	-10.4149
▁कारकों	-10.415
▁विपणन	-10.4154
जु	-10.4155
▁लौह	-10.4164
थी	-10.4167
▁बोध	-10.4176
▁जुड़	-10.4177
▁वयस्क	-10.4178
ीज़	-10.4179
▁लक्ष्मी	-10.4183
▁विकार	-10.4187
▁संयंत्र	-10.4195
▁दिवसीय	-10.4195
▁निचले	-10.4197
▁अहमदाबाद	-10.4198
िक्स	-10.42
वुड	-10.42
▁चौथी	-10.4201
चि	-10.4206
▁खुला	-10.4208
▁बिन्दु	-10.421
▁चालक	-10.4213
▁भाप	-10.4226
▁पढ़ने	-10.423
▁खिलाड़ियों	-10.4231
▁भर्ती	-10.4231
▁खड़ी	-10.4232
▁निशान	-10.4239
मार्ग	-10.4241
▁कैरियर	-10.4248
▁प्रक्षेपण	-10.4248
▁अल्लाह	-10.4248
▁तराई	-10.4249
स्व	-10.4252
त्मक	-10.4253
ेंट	-10.4264
ेन्द्र	-10.4266
▁दवाओं	-10.4269
पल	-10.4276
▁समग्र	-10.4277
▁1857	-10.4282
▁टे	-10.4283
▁आधे	-10.4283
ठा	-10.4289
▁संक्रमित	-10.4296
▁अफ्रीकी	-10.4298
▁क्षरण	-10.4298
▁In	-10.43
▁हैरी	-10.4309
▁||	-10.431
और	-10.431
▁नोट	-10.431
▁प्रारूप	-10.4314
▁रिकार्ड	-10.4316
▁होनी	-10.432
▁हुईं	-10.432
▁पुर्तगाली	-10.432
▁बताता	-10.4321
▁आयात	-10.4324
▁ओवर	-10.4326
v	-10.4332
▁जनपद	-10.4334
ल्ला	-10.4337
▁बृहस्पति	-10.4338
▁समेत	-10.4341
▁कहने	-10.4344
▁अनुबंध	-10.4346
▁फसल	-10.4346
23	-10.4347
▁मौर्य	-10.435
▁गुरू	-10.4352
▁रू	-10.4356
र्थ	-10.4364
▁अड्डे	-10.4366
साँचा	-10.4373
ावली	-10.4375
▁विश्वविद्यालयों	-10.4378
▁स्वाद	-10.4382
▁वेबसाइट	-10.4383
म्ब	-10.4384
▁महारानी	-10.4384
li	-10.4384
▁1973	-10.4384
▁मोक्ष	-10.4385
▁बादशाह	-10.4395
▁मंत्र	-10.4398
▁कोष	-10.4403
▁कणों	-10.4407
▁शुरुआती	-10.441
▁एकत्र	-10.4419
▁निकलती	-10.4425
डिया	-10.4428
▁जीते	-10.4431
▁बेन	-10.4432
▁27.5	-10.4434
▁पहुंचने	-10.4434
26	-10.4434
▁उपर्युक्त	-10.4435
▁उसको	-10.4438
▁ऑफिस	-10.444
▁शैक्षिक	-10.444
ce	-10.4441
च्छ	-10.4441
▁कार्रवाई	-10.4452
▁गिरजाघर	-10.4452
▁सोडियम	-10.4453
▁थोड़ी	-10.4453
▁79.4	-10.4453
▁चरणों	-10.4454
▁स्वस्थ	-10.4455
▁!	-10.4455
्वा	-10.4462
शायर	-10.4463
▁नाटकों	-10.4465
▁अद्भुत	-10.447
▁एडवर्ड	-10.447
▁छूट	-10.4471
▁पृष्ठभूमि	-10.4477
भाषा	-10.4478
-19	-10.448
▁नै	-10.4484
▁बचाव	-10.4493
▁पुराणों	-10.4495
ent	-10.4499
▁पंक्ति	-10.4502
".	-10.4502
▁भ्रूण	-10.451
▁गुफा	-10.4516
▁मोह	-10.4519
▁नाथ	-10.4519
▁अभियांत्रिकी	-10.4522
▁गणतंत्र	-10.4539
▁चित्रित	-10.4546
:-	-10.4549
▁गहन	-10.4553
▁कालेज	-10.4555
06	-10.4555
▁कथाओं	-10.456
▁जानने	-10.4561
▁पंचायत	-10.4567
▁देवनागरी	-10.4567
▁मारा	-10.4581
▁दुर्गा	-10.4587
िर	-10.4597
▁भीड़	-10.46
▁मोटे	-10.4607
▁राजपूत	-10.4608
▁1986	-10.461
▁दशकों	-10.4614
▁सीमाओं	-10.4615
78	-10.4619
▁अन्	-10.4622
▁अनुप्रयोग	-10.4626
▁लेखों	-10.4627
▁ख़	-10.4632
र्ग	-10.4636
▁चर	-10.4636
▁चौधरी	-10.4636
सूत्र	-10.4636
एफ	-10.4638
यान	-10.4639
ंगी	-10.464
ंब	-10.4644
▁1975	-10.4645
तक	-10.4645
▁उतना	-10.4648
वै	-10.4654
▁अवध	-10.4658
▁अनुसरण	-10.4662
▁कन्नड़	-10.4663
▁रायगढ़	-10.4664
चु	-10.4668
▁महर्षि	-10.4672
▁एंटी	-10.4672
▁रखकर	-10.4673
▁फैले	-10.4674
▁संदर्भित	-10.4676
▁एसिड	-10.4681
कू	-10.4682
▁यूनिवर्सिटी	-10.4684
▁अर	-10.4685
▁वैष्णव	-10.4688
▁ओम	-10.4695
▁भूल	-10.4697
तंत्र	-10.4705
गामी	-10.4709
▁शास्त्री	-10.4709
▁आदिवासी	-10.4723
वासी	-10.4728
धारी	-10.4729
▁चुनौती	-10.4731
▁वार	-10.4734
80	-10.4734
▁असामान्य	-10.4735
▁कर्ण	-10.4736
▁दीवारों	-10.4736
▁पत्रकार	-10.4737
ल्ल	-10.4739
चार	-10.4749
▁पूर्ति	-10.475
▁उन्नति	-10.4753
▁विद्युत्	-10.4753
▁ग्रहों	-10.4756
▁मानता	-10.4757
▁वोट	-10.4765
पार	-10.4772
▁नेत्र	-10.4772
▁विटामिन	-10.4774
▁आर्ट	-10.4774
ात	-10.4786
▁कवर	-10.4786
▁भाषण	-10.4786
▁गिनी	-10.4802
▁सफलतापूर्वक	-10.4805
मंडल	-10.4811
चक्र	-10.4811
▁खेलने	-10.4812
▁बातों	-10.4814
▁रिलीज	-10.4819
▁मनोवैज्ञानिक	-10.4821
▁कैलंडर	-10.4822
,000	-10.4823
▁सोना	-10.4826
▁खण्ड	-10.4826
▁हूं	-10.4831
45	-10.4832
▁प्रतिबंध	-10.4837
पाद	-10.4841
▁आना	-10.4842
▁मौखिक	-10.4846
▁स्वतन्त्रता	-10.4847
▁गठित	-10.4847
▁नरेश	-10.4854
▁ऊंची	-10.4857
▁सवाल	-10.4863
▁सहमत	-10.4869
टि	-10.487
▁कहलाती	-10.4875
▁प्रिय	-10.4875
▁अनुक्रम	-10.4882
▁द्वीपसमूह	-10.4895
योग	-10.4899
35	-10.4899
▁r	-10.4904
▁भंग	-10.4907
▁उद्यम	-10.4907
▁रोजगार	-10.4908
▁अग्र	-10.4908
▁डैविल	-10.4912
▁1987	-10.4912
▁हू	-10.4919
▁इंटर	-10.4923
▁उपरांत	-10.493
ion	-10.4935
▁उन्हे	-10.4939
▁अवस्थित	-10.4942
▁घोड़े	-10.4948
▁मुद्दों	-10.4948
135	-10.4949
▁भरी	-10.4951
▁लु	-10.4951
िकल	-10.4956
▁प्रतिष्ठा	-10.4959
▁सौंप	-10.4961
लिया	-10.4964
21	-10.4965
▁काल्पनिक	-10.4973
▁एण्ड	-10.4978
▁दोस्त	-10.4979
▁बागेश्वर	-10.4985
▁राइस	-10.4985
▁सड़कों	-10.5001
बिल्कुल	-10.5002
▁चमोली	-10.5002
▁अनुरोध	-10.5003
▁प्रतिवर्ष	-10.5006
▁कथन	-10.5006
▁मेले	-10.5018
▁जाट	-10.5018
माल	-10.5018
▁प्रतिस्पर्धा	-10.5023
ज्ञान	-10.5029
▁पहाड़ियों	-10.503
▁पहल	-10.5037
▁विष	-10.5039
▁कमरे	-10.504
▁वध	-10.504
नीय	-10.5051
▁शाखाओं	-10.5051
▁कहे	-10.5053
▁ऊतक	-10.5057
▁1940	-10.5059
▁सै	-10.5061
▁स्रोतों	-10.5062
ढ	-10.5069
▁ऑस्ट्रेलियाई	-10.507
द्र	-10.5071
▁ठाकुर	-10.5075
▁चैम्पियनशिप	-10.5075
▁नगरों	-10.5076
▁बुलाया	-10.5077
ाचार्य	-10.5083
▁एटा	-10.5085
▁डिज़ाइन	-10.5093
▁महादेव	-10.5094
▁मानने	-10.5095
▁साइट	-10.5095
▁पहाड़ों	-10.5102
▁निकला	-10.5102
▁तालाब	-10.5104
▁सीरीज	-10.5111
00	-10.5113
▁एकड़	-10.5118
▁चे	-10.5119
▁उपनगर	-10.5119
▁सां	-10.5125
▁55	-10.5125
▁क़	-10.5125
▁पीटर	-10.5127
▁ऊँचे	-10.5131
▁संकलन	-10.5132
▁इं	-10.5135
▁जिनमे	-10.5143
▁करा	-10.5147
▁दमन	-10.5152
▁तत्त्व	-10.5159
▁सफ़ेद	-10.5167
▁उड़ीसा	-10.5168
ण्ट	-10.5168
सल	-10.5171
ष्ठ	-10.5172
▁रचनाएँ	-10.518
▁टैग	-10.5181
▁विवेचन	-10.5184
चित्र	-10.5188
न्ट	-10.5189
▁निर्	-10.519
वेन	-10.519
▁अनाज	-10.5192
▁ग्वालियर	-10.5192
▁भंडार	-10.5193
▁टिप्पणी	-10.5194
▁सरकारों	-10.5196
▁व्यय	-10.5196
फ़ा	-10.5198
▁मार्शल	-10.5202
37	-10.521
56	-10.5214
▁पहुँचने	-10.5223
▁फतेहपुर	-10.5225
▁रामपुर	-10.523
▁मूल्यों	-10.5233
▁संभवत	-10.5245
रन	-10.5246
▁विधियों	-10.5251
▁किस्म	-10.5254
▁बातें	-10.5255
प्रति	-10.5255
▁बाढ़	-10.5261
▁मक्का	-10.5263
id	-10.5268
ाया	-10.5271
▁प्रबंधक	-10.5274
▁वापसी	-10.5275
▁मारने	-10.5278
▁जोधपुर	-10.5279
."	-10.5282
▁सहमति	-10.5284
्ता	-10.5287
▁अक्ष	-10.5288
▁पार्श्व	-10.5289
▁कं	-10.5294
▁रंगों	-10.5295
▁बंध	-10.5307
▁ब्लॉक	-10.5312
▁चौक	-10.5317
▁ऊँची	-10.5319
▁यात्रियों	-10.5327
▁सलाहकार	-10.5328
▁बेस	-10.5328
▁प्रशांत	-10.5332
द्ध	-10.5334
▁आनुवंशिक	-10.5337
▁लम्बाई	-10.5339
महा	-10.5339
खंड	-10.5341
दर्शन	-10.5345
▁पत्रों	-10.5349
▁दलों	-10.5353
▁स्ट्रीट	-10.5355
▁जौनपुर	-10.5355
▁लेन	-10.5355
▁इलेक्ट्रॉनिक	-10.5356
▁जाल	-10.5359
▁भट्ट	-10.5359
ta	-10.5367
▁सिंचाई	-10.5374
▁भावनाओं	-10.5382
नेस	-10.5389
नों	-10.5391
न्यू	-10.5392
▁फ्लोरिडा	-10.5393
▁गहरे	-10.5393
▁1988	-10.5394
▁लिखते	-10.5396
▁उतार	-10.5397
▁फे	-10.54
▁विनाश	-10.5404
▁चित्रों	-10.541
▁सिकंदर	-10.5411
▁शासित	-10.5411
▁स्थापत्य	-10.5412
97	-10.5413
▁हिट	-10.5414
ंगे	-10.542
▁जै	-10.5424
▁अतीत	-10.5431
▁मार्क	-10.5438
▁जम	-10.5444
▁प्रतिदिन	-10.5445
▁आखिरी	-10.5447
▁लाखों	-10.5448
▁माइक्रोसॉफ्ट	-10.545
▁बिन	-10.545
▁1967	-10.5451
▁बोर	-10.5452
▁तीव्रता	-10.5468
▁400	-10.5469
नु	-10.5473
▁नामित	-10.5476
राष्ट्रीय	-10.5476
▁ईसवी	-10.5491
▁एकत्रित	-10.5495
▁विभागों	-10.5496
▁गेट	-10.5498
▁बंदी	-10.5506
▁सेनाओं	-10.5506
▁जग	-10.5506
▁तटीय	-10.5507
▁एलिज़ाबेथ	-10.5507
▁अस्थायी	-10.5507
▁मुकाबले	-10.5508
▁संयोग	-10.5524
मैं	-10.5525
िटी	-10.5525
▁साम	-10.5527
▁सीता	-10.5528
▁महाकाव्य	-10.553
हरा	-10.5532
▁जानवर	-10.5532
▁परिवारों	-10.554
▁उपनिवेश	-10.5544
मिल	-10.5545
▁विलयन	-10.5548
▁पूर्वोत्तर	-10.5552
▁फि	-10.5553
▁पड़ोसी	-10.5556
माला	-10.5556
▁क्रिस्टल	-10.5563
000	-10.5563
▁पोषण	-10.5564
▁निगरानी	-10.5565
▁ख्याति	-10.5565
▁राधा	-10.5567
▁बलों	-10.5574
▁तरफ़	-10.558
▁प्रीमियर	-10.5584
▁संपादन	-10.5584
▁77	-10.5585
ma	-10.5588
▁कागज	-10.5589
▁जोड़ी	-10.5591
▁शुभ	-10.5598
▁दौड़	-10.5605
ानी	-10.5606
तना	-10.5609
▁बहस	-10.5613
▁सटीक	-10.5613
▁अट	-10.5617
▁बेच	-10.5619
▁अवार्ड	-10.5619
▁\	-10.562
▁परिस्थिति	-10.562
▁ग्रुप	-10.5621
▁छंद	-10.5622
▁मेडिकल	-10.5623
▁दंत	-10.5628
▁रुक	-10.5629
▁परिणामों	-10.5641
▁स्क्रीन	-10.5643
▁महावीर	-10.5645
▁सुना	-10.5648
▁इंदिरा	-10.5649
▁इनको	-10.5651
▁एनबीसी	-10.5659
▁किलो	-10.5661
▁85.45	-10.5662
बिल	-10.5663
▁1985	-10.5663
▁राजनीतिज्ञ	-10.5666
▁स्पर्श	-10.5667
नारायण	-10.5677
43	-10.5689
85	-10.569
▁छाया	-10.5692
भू	-10.5692
65	-10.5695
कार्य	-10.5698
▁भूकंप	-10.5701
▁इब्न	-10.5701
▁बरेली	-10.5701
▁°	-10.5707
स्तान	-10.5709
▁थॉमस	-10.5713
▁कोटि	-10.5714
▁काट	-10.5714
▁सेल	-10.5714
75	-10.572
▁राजशाही	-10.5721
स्ता	-10.5722
▁बलिया	-10.5723
र्व	-10.5734
▁लगाए	-10.5736
▁अनुच्छेद	-10.574
▁or	-10.574
▁अवयव	-10.5743
▁साहिब	-10.5747
▁नवाब	-10.5748
▁हितों	-10.575
31	-10.5757
नेट	-10.5759
▁तकनीकों	-10.5769
▁79.50	-10.5779
▁पेशकश	-10.5779
▁ऋग्वेद	-10.5779
▁27.22	-10.5779
▁घन	-10.578
▁प्रभुत्व	-10.578
il	-10.5785
▁यादव	-10.579
▁तप	-10.5791
भेद	-10.5795
देवी	-10.5795
परि	-10.5797
▁देहरादून	-10.5799
▁लाइसेंस	-10.5799
▁अधिग्रहण	-10.5799
▁1969	-10.58
▁अमीर	-10.58
जिन	-10.5804
▁साधना	-10.5805
िता	-10.581
▁किरण	-10.5818
▁गुरुत्वाकर्षण	-10.5819
▁शिक्षक	-10.5819
▁भागीदारी	-10.5828
99	-10.5828
▁चौथा	-10.5839
▁फैली	-10.584
▁क्रांतिकारी	-10.5841
▁सौंदर्य	-10.5842
▁बाँध	-10.5843
▁ड्राइव	-10.5849
लिक	-10.5852
▁कैलिफोर्निया	-10.5858
▁संशोधित	-10.5858
▁ज्वर	-10.5859
▁चोटी	-10.5862
जय	-10.5865
▁खेले	-10.5867
▁प्रायद्वीप	-10.5874
▁इनसे	-10.5875
▁पैदल	-10.5878
▁नींद	-10.5879
▁1979	-10.5879
▁अनेकों	-10.5882
:09	-10.5887
थो	-10.5888
मै	-10.5892
4%	-10.5896
▁संगीतकार	-10.5898
▁एसोसिएशन	-10.5898
▁1945	-10.5899
ेज़	-10.5904
04	-10.5906
क्ट	-10.5906
▁केन्द्रित	-10.5909
▁at	-10.5916
ul	-10.5917
▁खिताब	-10.5918
▁विद्यार्थी	-10.5918
▁अहिंसा	-10.5918
▁बिलियन	-10.592
▁पारिस्थितिकी	-10.592
▁बर्मा	-10.5921
▁आलोचकों	-10.5921
हु	-10.5937
▁तलाश	-10.5938
▁लोहा	-10.5941
▁बौद्धिक	-10.5945
पूर्वी	-10.5951
धार	-10.5951
▁द्रव्य	-10.5955
▁न्यूजीलैंड	-10.5958
वर्ग	-10.5966
प्स	-10.5973
धन	-10.5975
▁सदस्यता	-10.5975
67	-10.5976
▁गान्धी	-10.5978
▁1982	-10.5979
▁टि	-10.598
▁रात्रि	-10.5981
▁डॉक्टर	-10.5982
▁मतभेद	-10.5983
▁भिन्नता	-10.5988
▁खोला	-10.5993
▁तरंग	-10.5993
स्तर	-10.5994
ेरा	-10.5996
▁कुशीनगर	-10.5998
▁सेकंड	-10.5998
िओ	-10.5999
▁रियासत	-10.6
▁5.	-10.6002
▁औषधि	-10.6006
चन	-10.6008
▁एकता	-10.6009
▁कथित	-10.6011
▁सकल	-10.6014
▁त्रुटि	-10.6016
▁42	-10.6022
▁प्रसन्न	-10.6023
co	-10.603
श्च	-10.6035
▁चित्रकूट	-10.6039
▁रेस	-10.604
▁दांत	-10.6042
▁दिव्य	-10.6045
▁व्यापारी	-10.6046
▁इंद्र	-10.6049
▁तत्काल	-10.6062
▁खबर	-10.6062
▁अपराधी	-10.6066
▁पड़ते	-10.6066
वासियों	-10.6067
▁अपील	-10.6069
▁जोड़े	-10.6072
▁बाधा	-10.6077
मॉर्ट	-10.6079
▁सहारनपुर	-10.6079
▁इकाइयों	-10.6079
▁1961	-10.608
39	-10.6084
53	-10.6094
▁श्वसन	-10.6094
▁सम्बन्धी	-10.6098
▁अभयारण्य	-10.6099
▁1977	-10.61
▁उपनाम	-10.6102
▁चु	-10.611
▁अचानक	-10.612
▁महमूद	-10.612
▁झांसी	-10.612
tion	-10.6122
48	-10.6129
द्द	-10.6131
U	-10.6132
▁वृत्त	-10.6135
▁अस्थि	-10.6138
▁बनायी	-10.614
▁ऑटो	-10.6143
▁गोत्र	-10.6146
98	-10.6148
ंगा	-10.6148
ुल	-10.6151
▁ईरानी	-10.6154
▁पल	-10.6157
▁फैजाबाद	-10.6161
▁टाइम	-10.6162
▁श्रीकृष्ण	-10.6163
▁समतल	-10.6167
पुराण	-10.6177
नियम	-10.6178
▁शु	-10.618
▁धरोहर	-10.6181
▁समावेश	-10.6181
भी	-10.6182
▁आपसी	-10.6193
▁मोड़	-10.6195
▁शैल	-10.6196
▁पैसे	-10.6197
▁मनु	-10.6198
▁हटाने	-10.62
नुसार	-10.6202
▁भूमध्य	-10.6204
▁बारा	-10.6206
▁सीधा	-10.6206
▁छिद्र	-10.6206
▁टाटा	-10.6208
▁साधनों	-10.6213
्न	-10.6215
▁नामांकन	-10.6216
▁चिन्ह	-10.6216
ून	-10.6217
▁स्तरों	-10.6217
▁जीवाश्म	-10.6217
▁एजेंसी	-10.6222
▁अद्वितीय	-10.6223
गांव	-10.6225
काव्य	-10.6226
िज	-10.6228
▁कन्या	-10.6231
▁उतन	-10.6236
▁महत्त्व	-10.624
▁तात्पर्य	-10.6243
▁राजकीय	-10.6244
▁उठाया	-10.6247
लाई	-10.6248
ियाई	-10.6249
▁ग्रन्थों	-10.6253
▁अवैध	-10.6258
जू	-10.6258
मूल	-10.6269
▁छोड़ने	-10.6269
▁आयी	-10.6275
36	-10.6276
▁प्रभु	-10.6277
▁वास	-10.6279
▁निबंध	-10.6281
▁अधिवेशन	-10.6284
ांक	-10.6285
स्थल	-10.6291
▁रिचर्ड	-10.6292
▁लहर	-10.6292
72	-10.6302
▁विफल	-10.6306
▁स्कोर	-10.6309
▁सतत	-10.6312
ve	-10.6314
▁पात्रों	-10.6316
ज्ञ	-10.6322
▁एव	-10.6325
इया	-10.6326
▁जनक	-10.6331
96	-10.6332
▁निकलता	-10.6332
सिन	-10.6334
95	-10.6334
▁लिख	-10.6337
▁इतिहासकारों	-10.6338
▁वैध	-10.6344
▁जगहों	-10.6345
0,000	-10.6346
▁पारम्परिक	-10.6347
▁धर्मों	-10.6351
ुर	-10.6358
▁ट्रस्ट	-10.6361
▁g	-10.6363
▁सूत्रों	-10.6363
▁भेजे	-10.6367
▁पिथोरागढ	-10.6367
▁सदैव	-10.6368
▁खैर	-10.6368
▁निकटतम	-10.637
पथ	-10.6371
▁भीम	-10.6373
32	-10.6377
ैया	-10.6387
▁नी	-10.6399
▁करनेवाले	-10.6405
▁फार्म	-10.6407
▁इंदौर	-10.6409
▁रुद्र	-10.641
▁साझा	-10.6411
me	-10.6411
ल्फ	-10.6411
▁असली	-10.6412
युग	-10.6412
▁टो	-10.6412
▁लॉस	-10.6414
▁मद	-10.6417
▁परियोजनाओं	-10.6422
▁वेदों	-10.6423
तू	-10.6426
वंश	-10.6428
▁उल्लंघन	-10.643
▁नर्मदा	-10.6431
▁प्रमाणित	-10.6431
▁विल्सन	-10.6431
▁पर्वतमाला	-10.6432
▁आधा	-10.6432
▁सिकन्दरपुर	-10.6433
▁मेरा	-10.6434
▁नस्ल	-10.6437
▁मुनि	-10.6439
▁गाड़ी	-10.644
▁कल्प	-10.6441
▁फूलों	-10.6441
रोग	-10.6442
▁सृजन	-10.6449
▁it	-10.645
▁पत्रकारिता	-10.6452
▁J	-10.6452
▁पार्वती	-10.6455
▁कलात्मक	-10.6456
▁वनों	-10.646
▁झिल्ली	-10.6472
▁सिपाहियों	-10.6472
▁हज़रत	-10.6472
://	-10.6472
▁भ्रष्टाचार	-10.6473
▁हिमाचल	-10.6473
▁भले	-10.6478
▁आवासीय	-10.6479
▁किशोर	-10.648
▁टिकट	-10.6487
▁तिब्बती	-10.649
▁डिस्क	-10.6492
▁जैक	-10.6492
▁संदेह	-10.6493
▁मामला	-10.6494
86	-10.6494
▁बचे	-10.6494
▁खुदाई	-10.6499
▁बनकर	-10.6504
गिर्द	-10.6506
▁आनन्द	-10.6511
चित	-10.6512
▁उत्सर्जन	-10.6515
▁ईस्वी	-10.6515
▁मुग़ल	-10.6521
▁हराया	-10.6523
तल	-10.6526
▁समर्थक	-10.6528
सागर	-10.6528
▁ऑल	-10.6529
फ्	-10.6531
▁पत्थरों	-10.6541
ुक	-10.6543
फी	-10.6552
ेंद्र	-10.6556
▁पक्षों	-10.6557
▁वोल्डे	-10.6557
▁मिर्जापुर	-10.6559
राय	-10.6559
ानुसार	-10.6561
▁उक्त	-10.6562
▁ब्लू	-10.6563
▁शिया	-10.6566
▁समाजवादी	-10.6566
▁वेतन	-10.6569
यल	-10.6571
▁अतएव	-10.6579
▁सिविल	-10.658
▁शत्रु	-10.6582
▁अवसाद	-10.6583
▁76	-10.6591
ol	-10.6598
▁असाधारण	-10.6601
▁1949	-10.6602
▁हिन्दुओं	-10.6603
▁48	-10.6605
▁अध्यक्षता	-10.6607
▁विहार	-10.6612
रेट	-10.6615
▁अखिल	-10.6615
▁कॉल	-10.6621
▁नाइट्रोजन	-10.6622
▁नदियाँ	-10.6622
58	-10.6622
′40′′	-10.6625
▁सीखने	-10.6628
ग्र	-10.6633
▁प्रजा	-10.6639
▁हिन्दुस्तान	-10.6639
▁गरीब	-10.664
▁विश्	-10.664
▁एलबम	-10.6643
▁पाउंड	-10.6643
▁शिवलिंग	-10.6646
थे	-10.6647
▁अल्पसंख्यक	-10.665
निर्माण	-10.6653
▁नमूने	-10.6664
▁बंगलौर	-10.6664
ाक	-10.6668
कृष्ण	-10.667
▁वाष्प	-10.6674
▁टै	-10.6676
▁डाइ	-10.668
क्टर	-10.6683
ter	-10.6687
▁भाजपा	-10.6693
चन्द्र	-10.6696
▁खासकर	-10.6701
▁निरीक्षण	-10.6702
िव	-10.6703
▁निकाय	-10.6704
िना	-10.6706
कम	-10.6706
▁भीतरी	-10.6707
▁औरंगजेब	-10.6708
▁खतरे	-10.6708
▁स्वागत	-10.6708
▁1981	-10.6708
▁1983	-10.6709
▁सोलहवीं	-10.6709
▁अंतराल	-10.671
▁प्रकरण	-10.6712
▁बैंकों	-10.6713
िये	-10.6721
▁घट	-10.6729
▁बनावट	-10.6731
जीवन	-10.6731
▁नली	-10.6735
▁खूब	-10.6737
▁रेगिस्तान	-10.6741
▁भरत	-10.6744
हू	-10.6745
शे	-10.6745
▁शल्य	-10.6748
▁भागवत	-10.6748
▁गढ़	-10.6749
ठी	-10.6751
▁हट	-10.6752
▁1964	-10.6752
▁यकृत	-10.6756
च्च	-10.6757
▁विक्टोरिया	-10.6758
▁ऊष्मा	-10.6763
▁कोलंबिया	-10.6773
▁तमाम	-10.6773
▁पेय	-10.6773
▁प्रखण्ड	-10.6774
▁करवा	-10.6776
क्रिया	-10.678
्ज	-10.678
हित	-10.678
▁आज्ञा	-10.6781
▁ट्रैक	-10.6784
▁सुन	-10.6786
ब्र	-10.6791
▁ज़मीन	-10.6795
▁आर्क	-10.6796
▁खुर्द	-10.6796
▁सांस	-10.6797
▁खेलते	-10.6798
दम	-10.6803
▁उद्देश्यों	-10.6807
गाँव	-10.681
▁विषाणु	-10.6813
▁अवसरों	-10.6815
▁आमंत्रित	-10.6816
▁मैनपुरी	-10.6817
मुख	-10.6817
▁गुट	-10.6825
▁पृथक्	-10.6825
▁गीतों	-10.6825
▁कारोबार	-10.6838
▁सीज़न	-10.684
▁मौका	-10.6843
▁मिसाइल	-10.6843
▁खेत	-10.6846
▁अब्दुल	-10.6851
▁दायित्व	-10.6853
sh	-10.6855
▁विधेयक	-10.686
▁सेल्सियस	-10.686
▁डाक	-10.6861
▁रॉबर्ट	-10.6865
▁लड़ने	-10.6874
44	-10.6876
▁फ्री	-10.6876
▁क्षय	-10.6877
▁पर्वतों	-10.6878
70	-10.6878
▁भि	-10.6879
▁37	-10.6879
▁तेलुगू	-10.6882
▁रायपुर	-10.6882
90	-10.69
पट	-10.69
▁रथ	-10.69
▁माइक्रो	-10.69
▁इमारतों	-10.6902
▁गज	-10.6902
▁स्पेक्ट्रम	-10.6904
▁परिमाण	-10.6905
▁भरे	-10.6908
▁रहकर	-10.6912
na	-10.6914
▁भेजने	-10.6919
lo	-10.6921
▁1954	-10.6927
▁1958	-10.6927
▁खाली	-10.6928
रंग	-10.6935
▁परिवर्तनों	-10.6935
▁कृतियों	-10.6936
▁यो	-10.6939
▁II	-10.694
ढ़	-10.6942
▁सम्प्रदाय	-10.6942
▁माध्यमिक	-10.6942
▁ऊंचा	-10.6943
िणी	-10.6943
▁निर्दिष्ट	-10.6946
▁रहेगा	-10.6948
▁अवलोकन	-10.6948
▁त्रिभुज	-10.6948
▁सूचित	-10.695
बन	-10.6951
▁लोकतंत्र	-10.6951
▁कैद	-10.6954
वती	-10.6956
▁मंगोल	-10.6958
02	-10.696
▁लै	-10.6964
दल	-10.6969
▁निष्क्रिय	-10.6969
▁ब्राजील	-10.697
▁मतदान	-10.6973
धि	-10.6975
▁मालवा	-10.6976
▁सिरे	-10.6979
ड्र	-10.6979
▁समझी	-10.6979
▁शिलालेख	-10.6979
▁साक्ष्य	-10.6979
42	-10.6984
▁वायुमंडल	-10.6989
▁बैठा	-10.699
▁बैक्टीरिया	-10.699
▁राणा	-10.6993
▁संलग्न	-10.6993
▁इंडोनेशिया	-10.6994
▁मूत्र	-10.6995
र्त	-10.6997
वत	-10.6998
▁ठ	-10.7006
▁...	-10.7007
ृत	-10.7007
▁25°36	-10.701
▁अस्वीकार	-10.7015
▁ओजोन	-10.7015
▁इंटरनेशनल	-10.7016
▁1978	-10.7017
▁ढाल	-10.7023
व्	-10.7025
ाह	-10.7028
▁बहुधा	-10.7029
िस्तान	-10.7034
▁अल्	-10.7035
सिल	-10.7037
▁खून	-10.7037
▁पहलुओं	-10.7037
▁लड़की	-10.7039
▁भूत	-10.7047
▁गणितीय	-10.705
▁कश्मीरी	-10.7056
8′38′′	-10.706
▁पटकथा	-10.7062
▁कठिनाई	-10.7062
▁सिंधु	-10.7064
नू	-10.7067
▁लगाकर	-10.7068
▁अखबार	-10.7069
▁नीला	-10.707
un	-10.7075
47	-10.7083
▁85°0	-10.7085
▁आयन	-10.7085
▁आचरण	-10.7085
▁जनन	-10.7087
▁वाणिज्य	-10.7091
▁पहुँचे	-10.7092
▁India	-10.7097
▁सम्भव	-10.71
▁प्रोत्साहन	-10.7104
▁देहात	-10.7105
▁सर्दियों	-10.7105
ac	-10.7108
.9	-10.711
्रा	-10.7113
वेद	-10.7118
▁नाभिकीय	-10.712
दूर	-10.712
▁डालने	-10.7121
▁रद्द	-10.7128
वर्ष	-10.7129
छा	-10.7132
वर्ती	-10.7136
▁t	-10.7137
प्प	-10.7139
▁भागलपुर	-10.715
▁1976	-10.7151
▁मासिक	-10.7159
▁होज़े	-10.7165
मेट	-10.7166
्ले	-10.7167
▁चोल	-10.717
▁चट्टानों	-10.7176
08	-10.7179
▁उत्साह	-10.7179
▁वार्ता	-10.7184
▁किंग	-10.7191
j	-10.7192
▁प्रतिद्वंद्वी	-10.7195
▁हरी	-10.7198
▁फ़ोन	-10.7201
ुन	-10.7206
्टो	-10.7215
▁रायबरेली	-10.7218
्रि	-10.7221
▁उपनिषदों	-10.7221
पश्चिमी	-10.7224
▁देह	-10.7226
▁साउथ	-10.7226
ग्रह	-10.7227
▁औसतन	-10.7229
▁अक्षरों	-10.723
K	-10.7231
▁संगणक	-10.7233
▁मलेशिया	-10.7236
▁पिंड	-10.7237
▁दादा	-10.724
िकी	-10.724
दूसरे	-10.7242
▁1955	-10.7242
ate	-10.7245
84	-10.7249
चंद्र	-10.7249
76	-10.7254
▁सापेक्ष	-10.7254
▁आर्	-10.7257
▁65	-10.7259
▁चालू	-10.7267
▁वकील	-10.7273
87	-10.7278
09	-10.7281
▁फौज	-10.7282
▁राजनेता	-10.7283
▁दर्शक	-10.7284
▁सिक्किम	-10.7286
▁जरिए	-10.7286
▁गौ	-10.7286
▁हॉकी	-10.7288
▁उपज	-10.729
▁रंगीन	-10.7295
▁चलचित्र	-10.7296
▁कब्र	-10.7296
▁उपयोगकर्ताओं	-10.7296
अल	-10.7297
▁रिकॉर्डिंग	-10.7299
01	-10.7304
to	-10.7306
▁गुवाहाटी	-10.7309
▁not	-10.7309
व्यतीत	-10.7309
्टन	-10.731
▁बाबू	-10.7313
88	-10.7315
ड्स	-10.7316
शाह	-10.7317
▁गे	-10.7318
▁पूछा	-10.7319
}}	-10.7325
ेय	-10.7328
▁परिचित	-10.7331
प्पा	-10.7331
▁तपस्या	-10.7332
▁दाल	-10.7333
▁शानदार	-10.7333
▁ब्याज	-10.7338
▁पर्वतीय	-10.7339
भार	-10.7341
्थ	-10.7347
▁देगा	-10.7351
▁सम्पन्न	-10.7355
▁अपशिष्ट	-10.7355
▁गार्डन	-10.7357
▁रहें	-10.7359
▁चन्द्रमा	-10.7359
▁डाटा	-10.7366
▁स्कूलों	-10.7368
▁स्मिथ	-10.737
▁पावर	-10.7371
▁रणनीति	-10.7372
60	-10.7373
▁योजनाओं	-10.7383
▁शब्दावली	-10.7384
ंडी	-10.7384
▁ऑव	-10.7385
▁लौटने	-10.7387
स्वामी	-10.7388
▁गोंडा	-10.7391
▁डाय	-10.7391
▁लक्ष्मण	-10.7393
▁प्रभावों	-10.7394
▁बादल	-10.7401
▁रविदास	-10.7402
▁1946	-10.7402
.8	-10.7405
ाने	-10.7406
▁44	-10.741
▁मैंने	-10.741
▁72	-10.7412
▁दृढ़	-10.7415
ताओं	-10.7415
▁वर्षीय	-10.7417
▁कौ	-10.742
▁उर्जा	-10.7425
▁शपथ	-10.7425
▁इर्द	-10.7426
▁राग	-10.7427
टिन	-10.7428
•	-10.7429
▁कार्यकर्ता	-10.7434
▁इण्डिया	-10.7435
▁निर्माताओं	-10.7436
▁श्रद्धा	-10.7438
मध्य	-10.7438
▁64	-10.744
▁कमान	-10.7441
▁संकल्प	-10.7441
▁कविताओं	-10.7443
▁बढ़ी	-10.7444
▁1974	-10.7449
▁परिपथ	-10.7459
▁चतुर्थ	-10.7463
71	-10.7468
▁सिन्धु	-10.7469
▁विंडोज	-10.7469
▁अपितु	-10.7471
▁इटावा	-10.7471
▁सिंहासन	-10.7473
83	-10.7473
▁लेखा	-10.7474
se	-10.7476
ानंद	-10.7476
▁शनि	-10.7479
▁नाना	-10.7481
▁ब्रह्माण्ड	-10.7484
▁घेरे	-10.7486
▁टॉम	-10.7487
▁इतालवी	-10.7494
▁नगरपालिका	-10.7495
▁महाराणा	-10.7495
▁पॉटर	-10.7495
▁सें	-10.7496
▁शरण	-10.7496
▁सीटों	-10.7503
59	-10.7505
38	-10.7508
▁सैद्धांतिक	-10.7513
घा	-10.7515
▁निकले	-10.7515
▁लें	-10.7516
▁फर्रुखाबाद	-10.7518
स्टा	-10.7518
बाल	-10.7519
▁पूर्वज	-10.7519
▁विलुप्त	-10.7526
▁बढ़ाया	-10.7526
मुक्त	-10.7527
est	-10.7529
अन	-10.7531
▁करार	-10.7531
उस	-10.7531
▁कीट	-10.7535
चक	-10.7538
रान	-10.7538
▁लाइव	-10.7538
▁संचिका	-10.754
▁आजमगढ़	-10.7542
▁गुल	-10.7542
▁ब्रा	-10.7542
▁भेंट	-10.7543
▁पारी	-10.7543
पत	-10.7544
मह	-10.7545
नुमा	-10.7548
▁बैल	-10.7549
▁उदयपुर	-10.7554
ुद्दीन	-10.7554
▁प्रसंग	-10.7558
▁ते	-10.756
7°53′	-10.7562
▁खाता	-10.7564
▁प्रतिपादन	-10.7565
▁सैकड़ों	-10.7565
▁भयंकर	-10.7565
▁ग्रीष्मकालीन	-10.7565
▁वर्	-10.7565
▁उपजिला	-10.7565
फल	-10.7569
▁बाध्य	-10.7569
मोर	-10.7576
▁युक्ति	-10.7579
▁ताकत	-10.7581
ंगल	-10.7586
▁उन्नाव	-10.7588
▁चूँकि	-10.7588
▁तैयारी	-10.759
▁अफगानिस्तान	-10.7595
▁ठंडा	-10.7596
▁बुरी	-10.7606
▁देवरिया	-10.7607
▁सूडान	-10.7612
▁ढाका	-10.7613
▁84	-10.762
▁अन्ना	-10.7624
▁गले	-10.7627
▁जीवनी	-10.7635
ोद	-10.7638
▁सीरिया	-10.7639
▁मानकों	-10.764
▁नित्य	-10.764
शिया	-10.7642
िमा	-10.7644
छोटे	-10.7645
▁आराम	-10.7646
34	-10.765
▁ग्ल	-10.7652
्क	-10.7654
लों	-10.7659
▁फर्म	-10.7659
▁अवरोध	-10.7661
▁1942	-10.7661
▁1921	-10.7661
लाइन	-10.7662
▁सीतापुर	-10.7666
▁बन्द	-10.7666
▁लवण	-10.7669
▁खंडों	-10.7672
▁यम	-10.7674
▁पढ़ा	-10.7674
ेरी	-10.7675
▁{	-10.7682
66	-10.7683
टेक	-10.7683
लम	-10.7684
▁ख़ास	-10.7685
▁भेड़	-10.7685
▁छा	-10.7695
्का	-10.7696
ाइन	-10.7704
विक	-10.7706
्ल	-10.7706
▁सोसाइटी	-10.7707
▁विरूद्ध	-10.7708
्रो	-10.7708
▁सशस्त्र	-10.7708
▁ब्रह्मांड	-10.7709
ताल	-10.7709
्वे	-10.771
▁चौड़ाई	-10.7711
57	-10.7719
▁हज़ार	-10.772
विद्या	-10.7727
ाऊ	-10.7727
▁टीबी	-10.7729
▁इनकार	-10.773
▁अफ़ग़ानिस्तान	-10.7731
▁पीलीभीत	-10.7731
▁सेंट्रल	-10.7732
▁राहत	-10.7732
▁परिकल्पना	-10.7737
▁गि	-10.7739
▁फलों	-10.7742
▁बैठे	-10.7743
▁तेज़	-10.7743
▁38	-10.7747
▁चंद	-10.7748
▁स्वायत्त	-10.7754
▁डीएनए	-10.7755
▁सोनभद्र	-10.7755
▁बिलकुल	-10.7756
▁सरलता	-10.7757
लेख	-10.7758
▁यूनियन	-10.7759
▁बाबर	-10.7761
54	-10.7763
▁क्यू	-10.7763
▁असमर्थ	-10.7773
▁पिछल	-10.7774
▁लखीमपुर	-10.7779
▁चिड़ियाघर	-10.7779
▁खतरनाक	-10.7779
▁चेहरे	-10.7779
▁सर्वोत्तम	-10.7779
▁कर्तव्य	-10.7779
▁आवरण	-10.7781
िग	-10.7781
▁कू	-10.7781
▁दण्ड	-10.7783
कुमार	-10.7785
▁ताज	-10.7786
77	-10.7787
▁॥	-10.7788
▁सारणी	-10.779
▁डिवीजन	-10.7791
▁लाए	-10.7792
कट	-10.7792
▁ट्रांस	-10.7793
▁स्टॉक	-10.7794
तन	-10.7795
▁इन्होने	-10.7803
सान	-10.7806
▁आवाज़	-10.7807
मिया	-10.7808
धी	-10.7809
▁कष्ट	-10.781
▁रहित	-10.7813
8°04′	-10.7819
▁सिंध	-10.782
▁पेड़ों	-10.7823
▁क्यूबा	-10.7827
▁आंकड़ों	-10.7828
-3	-10.7828
▁स्टे	-10.7829
▁बांदा	-10.7829
64	-10.7829
▁करियर	-10.7831
▁शान्ति	-10.7832
im	-10.7833
▁गौर	-10.7834
49	-10.7838
▁उग्र	-10.7845
ni	-10.7848
▁फुले	-10.785
▁वस्तुत	-10.7851
▁अंबेडकर	-10.7852
▁बदलकर	-10.7852
कथा	-10.7856
ियर	-10.7857
र्य	-10.7863
गति	-10.7863
79	-10.7864
▁दत्त	-10.7865
▁गंध	-10.7865
▁चंद्रमा	-10.7869
वह	-10.7872
▁कैन	-10.7873
▁मानचित्र	-10.7875
▁हमारा	-10.7878
▁कस	-10.7878
हरी	-10.7882
▁समाधि	-10.7884
▁जिम्मेदारी	-10.7885
समूह	-10.7886
▁ईसापूर्व	-10.7888
जैसे	-10.7893
कै	-10.7894
68	-10.7898
▁स्तम्भ	-10.79
▁बिजनौर	-10.79
▁व्युत्पन्न	-10.79
▁संबोधित	-10.79
ज्ज	-10.79
▁सिक्के	-10.7901
▁चुंबकीय	-10.7902
▁लगाना	-10.7904
कन	-10.7905
73	-10.7907
▁भ्रम	-10.7913
डु	-10.7913
फो	-10.7913
▁उत्तराधिकार	-10.7916
▁चाय	-10.7917
र्द	-10.7919
▁स्त्रियों	-10.7925
▁प्रचालन	-10.7925
ष्	-10.7929
▁जहाजों	-10.793
▁माया	-10.7935
’,	-10.7938
▁नियत	-10.7939
बोध	-10.7943
▁लीला	-10.7946
मिक	-10.7949
▁पोषक	-10.7949
▁भाषाओँ	-10.795
▁पहुंचे	-10.7951
52	-10.7951
गार	-10.7952
जब	-10.7953
▁खीरी	-10.7954
▁मान्य	-10.7954
▁क्रो	-10.7956
क्त	-10.7958
▁कार्ल	-10.796
▁स्वीकृत	-10.7965
रहित	-10.7968
▁गाजियाबाद	-10.7974
▁फोटो	-10.7974
▁गायन	-10.7975
▁अटलांटिक	-10.7975
▁अन्यथा	-10.7976
▁गोपाल	-10.7978
▁पंथ	-10.7978
▁उपयोगिता	-10.7983
▁इसपर	-10.7986
▁टु	-10.7998
▁स्तूप	-10.7998
▁वस्तुतः	-10.8002
62	-10.8005
▁बास	-10.8006
ब्	-10.8007
वाह	-10.8021
▁श्रावस्ती	-10.8023
चल	-10.8024
▁मुड़	-10.8026
▁उद्	-10.8027
▁पॉप	-10.8033
▁वाहक	-10.8035
▁लिंक	-10.804
Xi	-10.8041
▁रंगमंच	-10.8047
▁रूचि	-10.8049
दक्षिण	-10.8058
▁मार्टिन	-10.8059
▁कृपा	-10.8064
िद	-10.8065
61	-10.8066
▁एकीकरण	-10.8066
▁बैंकिंग	-10.8068
▁मुंह	-10.8072
▁जरिये	-10.8072
▁प्रशिक्षित	-10.8073
▁सच	-10.8073
▁हिंदुओं	-10.8074
▁सूचीबद्ध	-10.8075
▁मऊ	-10.8077
ive	-10.8081
सेल	-10.8089
▁प्रयोगों	-10.8094
▁ट्र	-10.8096
▁1936	-10.8099
▁सुदूर	-10.8099
▁मुकदमा	-10.8101
▁बुक	-10.8104
▁दोषी	-10.8114
▁वरुण	-10.8116
बाद	-10.8121
▁क्रान्ति	-10.8121
लिस	-10.8122
▁अमृतसर	-10.8124
▁बारिश	-10.8133
▁चक्रवात	-10.8136
▁बयान	-10.8139
▁संक्षेप	-10.8139
▁नगरी	-10.8145
▁दलित	-10.8146
▁आत्महत्या	-10.8147
▁अनंत	-10.8148
▁1968	-10.8148
र्ज	-10.8149
▁रुपए	-10.815
▁इंजीनियरी	-10.8151
▁लंका	-10.8151
▁अपवाद	-10.8151
▁ब्रज	-10.8152
ौल	-10.8156
▁शिकायत	-10.8161
गेट	-10.8162
▁हार्मोन	-10.8172
▁एं	-10.8173
डल	-10.8176
▁गांवों	-10.8193
▁6.	-10.8198
▁प्रयाग	-10.8199
बू	-10.82
▁पहलू	-10.82
ारा	-10.82
▁अणुओं	-10.8203
▁रवि	-10.8214
▁Al	-10.8215
▁ढांचे	-10.8222
▁वितरित	-10.8222
▁अवकाश	-10.8222
▁अनुसूचित	-10.8224
▁पुरातत्व	-10.8225
ायन	-10.8229
▁निधि	-10.823
▁यथार्थ	-10.8232
▁द्रविड़	-10.8232
मीटर	-10.8241
▁रेंज	-10.8242
▁आश्चर्य	-10.8247
▁स्टारबक्स	-10.8247
▁कालिदास	-10.8247
▁टेलीफोन	-10.8247
▁महाराजगंज	-10.8249
▁क्रिस	-10.825
▁बल्लेबाज	-10.825
▁e	-10.8258
▁रोशन	-10.8259
▁श्याम	-10.8261
▁आँख	-10.8267
इल	-10.8269
▁शैक्षणिक	-10.8272
▁महोबा	-10.8272
▁ऑपरेशन	-10.8273
▁महामाया	-10.8273
▁प्रजातियां	-10.8273
41	-10.8274
▁यौगिकों	-10.8275
▁प्रभाग	-10.8278
▁श्लोक	-10.828
▁250	-10.8292
▁जावा	-10.8295
दत्त	-10.8296
विन	-10.83
▁तुलनात्मक	-10.8301
गुण	-10.8303
▁वन्य	-10.8308
न्ध	-10.8309
ers	-10.8312
स्की	-10.832
ोरा	-10.8321
▁नाक	-10.8321
▁मीनार	-10.8322
▁ख़त्म	-10.8323
▁टायसन	-10.8323
▁जालौन	-10.8323
▁माधव	-10.8324
▁बलरामपुर	-10.8325
पुरी	-10.8325
ोत्तर	-10.8328
▁दुसरे	-10.8329
▁देशी	-10.8334
▁व्हाइट	-10.8336
▁श्रंखला	-10.8343
प्रसाद	-10.8344
▁वकालत	-10.8349
▁प्रसिद्धि	-10.8351
प्	-10.8355
वेस्ट	-10.8355
▁आक्रामक	-10.8357
▁सत्याग्रह	-10.836
▁बुला	-10.8361
फे	-10.8362
▁43	-10.8373
▁नरेन्द्र	-10.8375
▁क्लोराइड	-10.8376
▁लाई	-10.8378
▁गायब	-10.8379
ँग	-10.8381
ल्ट	-10.8384
▁समझते	-10.8386
▁जेन	-10.8389
लोन	-10.8397
▁सेमी	-10.8399
्श	-10.84
▁नैदानिक	-10.84
▁ऑस्टिन	-10.84
▁1963	-10.8401
▁करेगी	-10.8402
▁कलाम	-10.841
▁स्वतन्त्र	-10.8415
▁शोषण	-10.8417
▁झा	-10.8417
बरी	-10.8418
▁परेशान	-10.8419
▁लम्बा	-10.8423
▁तेलुगु	-10.8425
▁शताब्दियों	-10.8425
▁स्नातकोत्तर	-10.8426
▁आक्सीजन	-10.8426
▁श्रीमती	-10.8428
▁जिसको	-10.843
मिन	-10.843
रात	-10.8434
▁पोत	-10.8436
स्ट्र	-10.8437
▁मिस	-10.8438
किंग	-10.844
▁उठाने	-10.8441
▁अमृत	-10.8444
▁ब्राह्मणों	-10.845
▁which	-10.8451
▁फिरोजाबाद	-10.8451
▁ललितपुर	-10.8454
▁शाब्दिक	-10.8455
▁आश्रय	-10.8456
▁मधु	-10.8459
▁छाप	-10.8467
▁दीक्षा	-10.8468
▁बांटा	-10.8469
▁चिर	-10.8469
▁लॉर्ड	-10.8472
▁तारीख	-10.8473
▁रै	-10.8475
▁ब्रितानी	-10.8477
▁पैटर्न	-10.8477
▁1928	-10.8479
▁इराक	-10.8483
▁मास्टर	-10.8488
▁बैक	-10.8491
▁प्राचीनतम	-10.8492
▁आतंकवाद	-10.8492
▁प्राथमिकता	-10.85
▁ऊतकों	-10.8502
षा	-10.8504
▁पूर्णिमा	-10.8505
▁भूभाग	-10.8505
साहित्य	-10.8509
▁रूपांतरण	-10.851
▁चिली	-10.851
▁46	-10.8512
93	-10.8513
▁कॉर्पोरेट	-10.8514
▁फिल्में	-10.8516
▁लड़ा	-10.8519
▁उत्पादक	-10.8523
▁देखना	-10.8525
▁सर्प	-10.8526
▁प्लास्टिक	-10.8528
▁एक्सचेंज	-10.8529
▁उद्गम	-10.8529
▁आकाशगंगा	-10.8529
▁भूख	-10.8534
▁दिखाने	-10.8534
▁बेगम	-10.8536
रिन	-10.8538
▁विघटन	-10.8538
▁कालीन	-10.8541
▁फ्रैंक	-10.8541
▁भारतवर्ष	-10.8541
▁तथ्यों	-10.8543
▁बिहारी	-10.8544
▁मं	-10.8544
▁पर्ल	-10.8556
▁पीछा	-10.8556
▁चढ़ाई	-10.8559
शैली	-10.8561
▁पाठक	-10.8562
92	-10.8563
कर्ताओं	-10.8564
▁आवेश	-10.8567
▁उपन्यासों	-10.8567
▁आस्था	-10.8567
▁पुरी	-10.8568
▁गुर	-10.8568
वर्त	-10.8573
▁बहने	-10.8575
51	-10.8575
▁पैरों	-10.8579
▁टरबाइन	-10.8581
69	-10.8582
▁मध्यप्रदेश	-10.8582
▁हिमनद	-10.8584
▁राजीव	-10.8585
▁जज	-10.8595
▁कहकर	-10.8595
▁जगत्	-10.8603
▁पाश्चात्य	-10.8607
▁मुलाकात	-10.8607
ho	-10.8607
▁प्रख्यात	-10.8607
▁गुर्दे	-10.8607
▁उष्मा	-10.8607
ोल	-10.8611
रम	-10.8613
07	-10.8618
▁दृश्यों	-10.8618
▁सामान्यत	-10.8619
दन	-10.8622
ेंस	-10.8623
▁श्र	-10.8624
▁लाइट	-10.8625
▁कांगो	-10.8631
▁निकोबार	-10.8633
▁बॉण्ड	-10.8633
▁सकने	-10.8633
▁हल्के	-10.8635
▁भेदभाव	-10.8635
▁3,	-10.8636
सिंग	-10.8637
▁सैक्सन	-10.8641
ांत	-10.8647
▁मू	-10.8647
▁Re	-10.8659
▁ट्यूब	-10.866
▁1966	-10.8661
▁74	-10.8661
▁पेटेंट	-10.8661
खण्ड	-10.8666
राजा	-10.8668
▁v	-10.867
▁पीले	-10.867
▁गंग	-10.8675
ट्रो	-10.8675
ig	-10.8677
▁फिलिप	-10.8678
जित	-10.8679
▁कन्	-10.868
लन	-10.8682
▁विकासशील	-10.8685
▁त्यौहार	-10.8685
▁मराठा	-10.8686
▁शंकराचार्य	-10.8686
उप	-10.8688
▁अनुभूति	-10.8689
▁1919	-10.869
▁राजकुमारी	-10.8691
▁चक	-10.8692
▁सुविधाएं	-10.8692
▁आउट	-10.8693
▁ज़ांज़ीबार	-10.8695
▁दक्षिणपूर्व	-10.8697
▁रोल	-10.87
▁नम	-10.87
1°51′	-10.8701
वर्ण	-10.8705
▁हेड	-10.8709
▁थिएटर	-10.8712
▁बुलन्दशहर	-10.8712
▁सर्विस	-10.8718
▁फंड	-10.8718
▁एज	-10.8725
▁मणि	-10.8726
▁युद्धों	-10.873
▁पूल	-10.8732
▁दर्शनीय	-10.8734
▁जू	-10.8736
▁चेतावनी	-10.8738
▁लड़कियों	-10.8738
▁परिचालन	-10.8738
▁1939	-10.874
▁भ्रमण	-10.8741
ड़ों	-10.8742
टल	-10.8744
▁पवन	-10.8744
▁मेन	-10.8745
▁धार	-10.8746
ांतर	-10.8746
आन	-10.8748
5°09′	-10.8751
▁भावी	-10.8752
राइ	-10.8755
▁चुन	-10.8755
▁नक्षत्र	-10.8759
▁बीटा	-10.876
म्बर	-10.8762
्सन	-10.8763
▁जंग	-10.8763
▁हानिकारक	-10.8765
▁बागपत	-10.8765
ीज	-10.8765
▁छेद	-10.8765
▁बाई	-10.8767
▁दायर	-10.8767
▁चित्त	-10.8774
▁आइंस्टीन	-10.8774
ांश	-10.8777
▁1900	-10.8777
▁न्यायिक	-10.8782
▁अत्याचार	-10.8782
▁उद	-10.8784
▁तिलक	-10.8784
र्प	-10.8785
▁सल्तनत	-10.8791
▁विवादास्पद	-10.8791
▁आपका	-10.8796
ेन्ट	-10.8799
म्बा	-10.8801
▁प्रिंस	-10.8811
▁संवेदनशील	-10.8813
▁मलेरिया	-10.8818
▁एयरपोर्ट	-10.8818
▁भविष्यवाणी	-10.8819
▁दिखा	-10.8819
▁हान	-10.882
▁घातक	-10.8827
ग्रस्त	-10.8827
▁प्रेमचंद	-10.8827
▁तेज़ी	-10.8828
▁कुश	-10.8829
लैण्ड	-10.8831
▁आजाद	-10.8834
▁प्रचुर	-10.8835
▁रेशम	-10.884
दू	-10.8841
ment	-10.8842
खेरा	-10.8844
ti	-10.8844
▁टुकड़े	-10.8845
▁शाहजहांपुर	-10.8846
▁लव	-10.8847
लीन	-10.885
▁अनंतपुर	-10.885
्को	-10.8852
▁अहम	-10.8854
▁दम	-10.8855
▁गिरने	-10.8857
▁समुच	-10.8857
▁वान	-10.8859
▁120	-10.8862
▁गुड	-10.8862
ीस	-10.8863
em	-10.8865
▁फलन	-10.8865
जनक	-10.8868
▁धीमी	-10.8872
▁अनुदान	-10.8874
▁पर्यावरणीय	-10.8876
▁गद्दी	-10.8876
▁क्रोध	-10.8876
▁पाक	-10.8877
▁आग्रह	-10.8878
▁उपलब्धि	-10.8879
▁असमिया	-10.8879
▁यूनान	-10.8879
▁आल	-10.8888
अपने	-10.8888
▁पत्रिकाओं	-10.8891
▁हें	-10.8895
▁प्रवास	-10.8895
▁पारिवारिक	-10.8899
▁पूर्णतया	-10.8901
▁फसलों	-10.8901
शंकर	-10.8907
▁पोल	-10.8914
▁ग्रे	-10.8914
▁साम्यवादी	-10.8918
नेवाले	-10.8919
▁नीले	-10.8919
▁UK	-10.8919
▁ओपन	-10.892
▁बसने	-10.8922
▁शे	-10.8925
▁संकेतों	-10.8926
▁होम्स	-10.8929
▁विश्वकोश	-10.893
झा	-10.8931
▁भूमिगत	-10.8933
ोक	-10.8934
▁भगत	-10.8938
▁कौटिल्य	-10.894
▁डाली	-10.8947
ंध	-10.8949
▁मुफ्त	-10.8953
▁आंकड़े	-10.8953
▁परिवेश	-10.8953
▁उत्तरदायी	-10.8955
पेट	-10.896
46	-10.896
▁अदा	-10.8968
▁दुःख	-10.8969
मेर	-10.8971
▁शाकाहारी	-10.8971
▁शैव	-10.8975
▁सेनापति	-10.8978
▁वृक्षों	-10.8978
▁शतक	-10.8984
▁जिम	-10.8984
वीर	-10.8985
विकास	-10.8989
नेर	-10.899
▁डेली	-10.899
Xw	-10.8991
▁st	-10.8994
▁दस्तावेज	-10.8995
▁स्राव	-10.8996
▁52	-10.9001
▁मधुर	-10.9002
▁तू	-10.9002
गीत	-10.9004
▁पारस्परिक	-10.9007
▁थोड़े	-10.9007
चन्दौली	-10.9014
▁रावण	-10.9014
▁जादू	-10.9016
▁भांति	-10.9017
▁टाइप	-10.9023
▁प्रयोजन	-10.9027
▁गोविन्द	-10.9027
▁विषम	-10.9028
▁यांत्रिकी	-10.9028
no	-10.903
▁600	-10.9031
▁ओलम्पिक	-10.9034
▁आवेदन	-10.9035
▁गोस्वामी	-10.9035
▁साधारणतया	-10.9036
ne	-10.9043
ज़र	-10.9043
▁फेंक	-10.9044
▁कपास	-10.9044
ावस्था	-10.9045
▁यहूदियों	-10.9045
▁देखता	-10.9046
▁इलेक्ट्रॉन	-10.905
▁हाइ	-10.9053
बड़े	-10.9054
▁आत्मकथा	-10.9055
▁स्वप्न	-10.9055
▁ऐंड	-10.9056
्यो	-10.9058
▁संश्लेषण	-10.9061
▁सिद्धार्थनगर	-10.9062
▁वर्णमाला	-10.9062
ai	-10.9063
ak	-10.9063
op	-10.9064
▁बेहतरीन	-10.9064
▁औपनिवेशिक	-10.9067
▁मीर	-10.9072
यत	-10.9073
▁जाएँ	-10.9073
राज्य	-10.9076
वादियों	-10.9078
os	-10.908
▁फर	-10.9081
▁लू	-10.9082
▁this	-10.9089
▁मुखर्जी	-10.9089
▁हुयी	-10.9089
▁सम्बद्ध	-10.909
▁उत्पादित	-10.9092
▁तन	-10.9095
त्रा	-10.9105
▁हिंद	-10.9107
गुरु	-10.9107
▁मोनो	-10.9109
िंगटन	-10.911
▁द्र	-10.9113
▁ग्यारह	-10.9113
▁एकदम	-10.9114
▁सम्पर्क	-10.9116
▁ऊंचे	-10.9116
▁ट्रे	-10.9117
▁अयोध्या	-10.9121
▁वास्तु	-10.9123
▁नाट्य	-10.913
सह	-10.9138
सिया	-10.914
▁मकान	-10.914
▁इंजीनियर	-10.9143
ल्ठम	-10.9144
▁उष्ण	-10.9144
▁ग्रैंड	-10.9144
▁पकड़ने	-10.9145
▁1959	-10.9145
▁गोद	-10.9147
▁सीधी	-10.9147
▁आरक्षित	-10.9148
▁माला	-10.9162
▁उन्	-10.9162
▁लगाते	-10.9165
▁अंकों	-10.9165
▁औरैया	-10.9171
▁image	-10.9171
▁स्पेनिश	-10.9173
▁एक्शन	-10.9173
▁1953	-10.9173
▁मातृभाषा	-10.9175
▁चाहती	-10.9178
▁संस्कृतियों	-10.918
▁काटने	-10.9181
ॉस	-10.9185
▁श्रीनगर	-10.9187
ोड	-10.9189
▁बैटरी	-10.92
▁1922	-10.9202
-4	-10.9202
गिरि	-10.9202
किसी	-10.9203
▁पूर्णतः	-10.9205
▁मरने	-10.921
▁आँखों	-10.9211
ab	-10.9214
0%	-10.9222
▁मंगोलिया	-10.9226
▁मछलियों	-10.9227
▁मुद्दे	-10.9227
▁स्कॉटिश	-10.9227
▁लोकतांत्रिक	-10.9228
▁उत्तरार्ध	-10.9228
▁समापन	-10.9229
ाजी	-10.923
▁Pakistan	-10.9233
▁h	-10.9235
▁मनो	-10.9235
▁भोजपुरी	-10.9235
गुप्त	-10.9236
▁ऑपरेट	-10.9243
▁चिंतन	-10.9254
▁ब्रेक	-10.9258
▁खुल	-10.9258
▁39	-10.9264
ill	-10.9269
▁दिखने	-10.9273
त्री	-10.9274
▁पद्य	-10.9276
क्यू	-10.9277
▁पुर्ण	-10.9277
▁पुण्य	-10.9281
▁चयापचय	-10.9283
▁परीक्षणों	-10.9283
▁फ़ाइल	-10.9287
ियल	-10.9289
▁स्टोर	-10.9297
▁दीर्घ	-10.9298
▁इकट्ठ	-10.9302
94	-10.9306
टू	-10.9306
त्ता	-10.9309
▁धूल	-10.931
अनु	-10.9311
▁खुश	-10.9311
▁बहुसंख्यक	-10.9312
▁संजय	-10.9313
▁बाण	-10.9313
▁सर्वर	-10.9318
▁मंजूरी	-10.932
▁can	-10.932
▁जौ	-10.9324
▁धाम	-10.9325
▁चार्ट	-10.9326
▁मेजर	-10.9327
आधारित	-10.9327
▁बदौ	-10.9331
नव	-10.9334
▁स्क	-10.9336
▁यॉर्क	-10.9339
▁कितनी	-10.9339
▁चन्द्रगुप्त	-10.9339
बांकी	-10.9339
▁झलक	-10.934
▁पूरक	-10.934
63	-10.9342
▁टीपू	-10.9342
ut	-10.9343
▁इस्तीफा	-10.9343
▁नाभिक	-10.9347
प्रकाश	-10.9349
▁अवशोषण	-10.9353
दर्श	-10.9365
▁रैंक	-10.9365
▁विवेक	-10.9367
▁प्रदूषण	-10.9368
▁योनि	-10.9369
▁वाणी	-10.937
▁पीने	-10.9372
om	-10.9372
▁नल	-10.9373
क्षण	-10.9376
▁धो	-10.938
▁पट्ट	-10.9388
▁व्यापारियों	-10.939
बंद	-10.9391
▁शेख	-10.9394
▁कच्चे	-10.9395
▁हरदोइ	-10.9395
▁मुझफ्फर	-10.9395
▁बहरै	-10.9396
र्ब	-10.9396
▁जबलपुर	-10.9396
▁कौशम्	-10.9396
ानु	-10.9399
▁मेयर	-10.94
▁चक्कर	-10.9401
▁रेटिंग	-10.9401
स्वरूप	-10.9409
▁सुरंग	-10.9409
▁घुल	-10.9411
▁विधा	-10.9415
▁नाटकीय	-10.9418
▁कॉफी	-10.9424
▁कीटों	-10.9425
▁राष्ट्रमंडल	-10.9426
▁तलवार	-10.9426
▁साथियों	-10.9429
▁खुली	-10.9433
▁मध्यकालीन	-10.9435
▁संकर	-10.9438
▁सदर	-10.9438
▁सोम	-10.9439
▁सिफारिश	-10.9441
man	-10.9451
▁लन्दन	-10.9452
▁टेनिस	-10.9452
▁सती	-10.9455
पक्ष	-10.9461
ोला	-10.9461
mo	-10.9462
▁घटकों	-10.9463
ैन	-10.9464
▁ईंट	-10.9465
द्वार	-10.9465
प्ट	-10.9465
▁अन्न	-10.9466
पात	-10.9469
▁चुम्बकीय	-10.9469
▁इर	-10.9475
▁शर्त	-10.948
▁थियेटर	-10.948
▁सोसायटी	-10.948
▁सीबीएस	-10.9482
▁1951	-10.9482
▁ऑ	-10.9486
▁मंजिल	-10.9487
प्रो	-10.9487
लांतर	-10.9492
▁मैदानों	-10.9496
▁http	-10.9504
क्रो	-10.9506
▁उपजाऊ	-10.9509
▁पतली	-10.951
▁1935	-10.9511
मई	-10.9513
▁वस्तुएँ	-10.952
▁अना	-10.9522
▁k	-10.9527
▁तन्त्र	-10.9529
ism	-10.9532
बेल	-10.9537
▁दाखिल	-10.9538
चंद	-10.9543
▁इमाम	-10.9545
▁भाषाई	-10.9547
▁संख्याओं	-10.9552
▁तिहाई	-10.9554
▁रज	-10.956
▁संतोष	-10.9567
▁कोयला	-10.9567
▁संकाय	-10.9567
▁पहचाना	-10.9568
sa	-10.9571
▁सौंपा	-10.9572
▁प्रगतिशील	-10.9573
▁बता	-10.9576
▁संस्करणों	-10.9579
▁दक्षता	-10.9579
▁झारखंड	-10.9579
▁हिन्दु	-10.9581
▁घेर	-10.9582
▁भरने	-10.9583
▁जेट	-10.9587
▁वॉल	-10.9588
▁बिग	-10.9589
▁कन्नड	-10.9593
▁स्वीडन	-10.9595
▁खारिज	-10.9596
▁कथानक	-10.9596
घाट	-10.9599
▁शहीद	-10.9599
▁धूप	-10.9603
▁मेजबानी	-10.9603
81	-10.9604
▁सुनाई	-10.9605
▁अध	-10.9605
▁हॉ	-10.9606
▁ज़ोर	-10.9608
po	-10.9611
प्रसिद्ध	-10.9612
कारों	-10.9614
विशेष	-10.9616
▁पाना	-10.9616
▁ग्रस्त	-10.9618
and	-10.9619
▁चम्पावत	-10.9624
▁लुप्त	-10.9625
||	-10.9626
▁रास	-10.9626
▁मुकाबला	-10.9627
वृत्त	-10.9627
▁वसंत	-10.9629
▁गिरा	-10.9629
▁51	-10.963
▁कम्युनिस्ट	-10.9632
मापी	-10.9633
जीव	-10.9638
▁डॉन	-10.9641
▁संचरण	-10.9645
पाकिस्तान	-10.9646
ya	-10.9648
▁तैनात	-10.965
▁सशक्त	-10.9653
▁मेक्सिको	-10.9653
▁शिकागो	-10.9653
▁सरोवर	-10.9653
▁स्टील	-10.9655
▁1937	-10.9655
▁मार्गदर्शन	-10.9656
▁सोनी	-10.9669
▁बायो	-10.9679
▁प्रांतीय	-10.9681
▁कहानियाँ	-10.9682
▁1931	-10.9684
▁भु	-10.9685
▁बर्फ़	-10.9687
कारक	-10.9688
▁con	-10.9689
पुत्र	-10.969
फ़ील्ड	-10.9693
▁जयंती	-10.9694
▁भजन	-10.9697
▁शव	-10.9702
▁पंख	-10.9702
▁एल्	-10.9703
▁लार	-10.9706
▁गानों	-10.9706
▁क्षत्रिय	-10.9713
▁1927	-10.9714
▁ग्लोब	-10.9715
शियन	-10.9716
▁विशेषज्ञों	-10.9719
निष्ठ	-10.9721
▁परे	-10.9723
▁सुनने	-10.9724
▁ध्रुवीय	-10.9729
▁फो	-10.9729
▁स्मरण	-10.9733
▁गाना	-10.9736
▁पह	-10.9738
▁उज्जैन	-10.9741
▁धनी	-10.9741
▁चौड़ी	-10.9742
▁अनुप्रयोगों	-10.9742
▁बेचने	-10.9745
▁साइ	-10.9749
▁बेटा	-10.9756
ant	-10.9757
age	-10.9757
▁पंचम	-10.9759
मुखी	-10.976
▁गाया	-10.976
▁संरचनाओं	-10.9761
▁निभा	-10.9762
ेव	-10.9765
यात्रा	-10.9768
न्य	-10.9768
▁प्रतिपादित	-10.977
व्यवस्था	-10.977
ट्र	-10.9771
ोली	-10.9772
▁तस्मानिया	-10.9773
▁शिक्षित	-10.9774
▁मोटी	-10.9778
▁नाश	-10.9783
▁स्वरुप	-10.9783
▁पेज	-10.9789
ैक	-10.9794
▁पिट	-10.9794
▁बर्	-10.9796
▁फेफड़े	-10.9799
▁आकलन	-10.9799
▁तारामंडल	-10.98
▁मूर	-10.98
स्टी	-10.9802
▁मन्त्र	-10.9805
▁आतंकवादी	-10.9807
मू	-10.9813
▁पाती	-10.9816
▁क़ानून	-10.9826
▁गुलाब	-10.9827
▁उद्धृत	-10.9829
▁भरपूर	-10.9832
▁करो	-10.9837
▁हथियारों	-10.9841
▁साप्ताहिक	-10.9842
▁बीमार	-10.9842
▁सुधारों	-10.985
▁गौरी	-10.9852
▁मालूम	-10.9859
▁चौहान	-10.9859
विरोधी	-10.9864
▁घूमने	-10.9864
ौं	-10.9865
▁लूट	-10.9867
89	-10.9867
रै	-10.9872
▁गरीबी	-10.9873
▁पेन	-10.9876
ोव	-10.9882
▁प्रतिरक्षा	-10.9885
खी	-10.9885
▁नेपोलियन	-10.9886
▁विनिमय	-10.9888
▁एडिनबर्ग	-10.9888
▁क्रेडिट	-10.9888
▁1924	-10.989
▁हमलों	-10.9891
▁रॉकेट	-10.9891
▁he	-10.9893
▁बेला	-10.9893
▁रिंग	-10.9894
▁विल	-10.9896
विध	-10.9897
▁कब	-10.9899
▁शंकु	-10.9902
▁आदान	-10.9903
ian	-10.9911
▁टैंक	-10.9911
▁दांतों	-10.9911
▁रहीम	-10.9911
▁नंद	-10.9914
ुम	-10.9917
▁उपासना	-10.9918
▁कैबिनेट	-10.9918
▁साफ़	-10.9919
▁वर्णक्रम	-10.9919
▁भोग	-10.992
फ़ेयर	-10.9921
▁घटित	-10.9927
▁भूमिकाओं	-10.9936
ियस	-10.9936
शाला	-10.9938
▁सोन	-10.9939
▁व्यस्त	-10.9942
▁उभर	-10.9946
pload	-10.9948
▁जर्नल	-10.9948
▁कोच्चि	-10.9948
▁पंजीकृत	-10.9948
▁पालतू	-10.9948
▁गिनती	-10.9949
▁कार्यवाही	-10.995
नार	-10.9953
▁इनमे	-10.9954
▁दिखता	-10.9954
▁वाहनों	-10.9959
बंध	-10.9962
▁लेबल	-10.9962
टु	-10.9966
दीप	-10.9967
▁होली	-10.9969
गंगा	-10.9971
▁डाई	-10.9973
सीसी	-10.9975
▁ढ	-10.9976
▁खपत	-10.9977
▁आयरिश	-10.9978
▁हार्डी	-10.9978
▁यूनिट	-10.9978
क्क	-10.9978
्ला	-10.9988
ेक	-10.9989
▁मुँह	-10.999
▁हराकर	-10.9991
पाठ	-10.9996
ीक	-10.9999
▁सिम	-11.0002
▁ऑक्साइड	-11.0003
जेन	-11.0007
▁रक्तचाप	-11.0008
▁असंभव	-11.0009
▁स्तरीय	-11.0009
▁1944	-11.0009
ज़ो	-11.0009
▁घने	-11.0011
▁उपहार	-11.0012
▁पेरू	-11.0014
▁जन्मे	-11.0016
▁छठी	-11.0019
प्रा	-11.0021
पोर्ट	-11.0023
डेन	-11.0026
▁राजस्थानी	-11.0028
▁पौधा	-11.003
ाइट	-11.0032
▁पुरा	-11.0035
▁सिपाही	-11.0038
▁देखरेख	-11.0038
▁खाद	-11.0046
▁मंत्रियों	-11.0047
▁केशव	-11.0048
our	-11.005
ौली	-11.0051
हान	-11.0052
▁व्यंजनों	-11.0053
ऑ	-11.0053
▁कुंभ	-11.0054
▁परंपराओं	-11.0054
टोन	-11.0062
यम	-11.0065
तों	-11.0066
परिवार	-11.0067
▁श्रीराम	-11.0067
▁अलंकार	-11.0069
▁बंधन	-11.0069
▁धरातल	-11.007
▁मलिक	-11.0078
▁मोती	-11.0079
▁दिमाग	-11.008
शाली	-11.0084
▁आलू	-11.0086
पक	-11.0089
▁स्वच्छ	-11.0089
▁नीदरलैंड	-11.0092
▁रचनात्मक	-11.0093
ध्	-11.0094
▁एस्पिरिन	-11.0098
▁खींच	-11.0099
▁मानसून	-11.0099
▁निंदा	-11.01
▁बढ़कर	-11.0101
वाई	-11.0102
▁पीड़ा	-11.0102
इंगित	-11.0104
▁73	-11.0109
▁सकी	-11.011
▁दया	-11.0112
▁अनुपस्थिति	-11.0115
▁कराता	-11.0117
▁साइंस	-11.0122
▁उपग्रहों	-11.0124
ह्	-11.0124
▁तीस	-11.0125
▁जंतुओं	-11.0129
▁चीज	-11.0129
▁कितने	-11.0129
्ग	-11.0133
नौ	-11.0138
▁मलय	-11.0138
मित	-11.0141
▁आदर	-11.0143
▁गिल	-11.0147
▁क्रॉस	-11.0147
▁अपनाने	-11.0148
end	-11.0148
▁सम्राट्	-11.015
किन	-11.0153
▁रोका	-11.0156
J	-11.0159
▁कर्नूल	-11.0159
▁मत्स्य	-11.0159
▁त्वरित	-11.0159
▁बैठ	-11.016
▁पढ़	-11.016
▁ठहराया	-11.016
▁1932	-11.0161
▁फ्र	-11.0161
▁1925	-11.0162
▁85°	-11.0165
प्रधान	-11.0173
नहम	-11.0179
▁बडी	-11.0184
▁पुत्रों	-11.0186
भंग	-11.0188
रानी	-11.0188
▁बंबई	-11.019
▁रचयिता	-11.019
▁आस्ट्रिया	-11.019
▁गैलेक्सी	-11.019
▁नजदीकी	-11.019
उल	-11.0191
▁दुकानों	-11.0194
▁प्रतिनिधियों	-11.0195
▁चेक	-11.0196
▁आजीवन	-11.0197
▁अक्षय	-11.0198
ay	-11.0201
5°00′	-11.0201
▁विन्यास	-11.0204
▁टावर	-11.0206
74	-11.0208
▁सुई	-11.0213
▁वाय	-11.0216
▁47	-11.0216
िला	-11.0217
▁फेर	-11.0218
▁नाइट	-11.022
▁अयस्क	-11.0221
▁घड़ी	-11.0222
▁आशय	-11.0223
▁बनारस	-11.0223
नपुर	-11.0223
मती	-11.0224
▁बुश	-11.0225
▁वनडे	-11.0225
▁प्रवेशद्वार	-11.0226
वाड़ा	-11.0229
▁बद	-11.023
नेवाली	-11.0237
टिव	-11.0237
▁56	-11.0243
▁मदन	-11.0243
ाधिक	-11.0245
लिका	-11.0245
▁रूपरेखा	-11.0249
▁स्वदेशी	-11.025
▁मानस	-11.0251
गढ	-11.0251
▁एपिसोड	-11.0251
▁प्राधिकरण	-11.0251
▁इंग्लैण्ड	-11.0251
▁अनुयायियों	-11.0251
▁इधर	-11.0254
▁बोले	-11.0258
▁बल्लेबाजी	-11.0259
फोर्ड	-11.026
▁पैरा	-11.0261
▁बढ	-11.027
सीन	-11.0273
▁वर्षो	-11.0274
▁हंस	-11.0276
▁हेम	-11.0279
▁उजागर	-11.0282
▁मंत्रिमंडल	-11.0282
डेल	-11.0283
▁प्रतिस्थापित	-11.0284
▁सहन	-11.0288
पै	-11.029
▁रोशनी	-11.029
▁मुखिया	-11.0291
धु	-11.0293
▁w	-11.0295
▁चो	-11.0297
▁पीला	-11.0299
▁श्	-11.0302
▁7.	-11.0302
▁फै	-11.0305
नीति	-11.0307
▁माउंट	-11.0307
▁बचत	-11.0308
▁बर्तन	-11.0308
▁बुरा	-11.0314
▁1917	-11.0316
उत्तर	-11.0319
▁बहुतायत	-11.032
्च	-11.032
▁हेल	-11.0321
▁व्य	-11.0324
▁नामांकित	-11.0325
▁पट	-11.0328
va	-11.0328
लेस	-11.0331
▁वक्र	-11.0333
▁बिस्मिल	-11.0334
▁विद्वान्	-11.0334
▁सवार	-11.0334
हन	-11.0335
▁अनुशासन	-11.0336
्टर	-11.0336
▁वाद्य	-11.0337
▁आलोचक	-11.0339
▁जिनको	-11.0341
▁पब्लिक	-11.0344
▁रोकथाम	-11.0344
▁संकलित	-11.0344
न्ना	-11.0344
▁have	-11.0345
▁बजाए	-11.0348
सिंगपुर	-11.0348
▁बोला	-11.0351
▁प्रवासी	-11.0355
मानव	-11.0357
▁आयुक्त	-11.0361
▁सूखे	-11.0368
www	-11.0375
▁बच्चन	-11.0375
▁were	-11.0375
▁पाचन	-11.0376
▁1941	-11.0377
▁साँप	-11.0379
▁पचास	-11.0383
▁सुन्नी	-11.0384
▁होम	-11.0385
▁उमर	-11.0388
▁फी	-11.0388
ण्	-11.0389
ंदा	-11.0393
▁तह	-11.0395
▁चोरी	-11.0395
वारी	-11.0397
ीपुर	-11.0397
▁सोचा	-11.0399
▁चट्टान	-11.04
▁चांदी	-11.0401
▁शिला	-11.0402
▁गतिशील	-11.0402
▁रेजीमेंट	-11.0406
▁रिसर्च	-11.0406
▁पान	-11.0409
लेन	-11.0412
▁कमीशन	-11.0413
▁गुजर	-11.0413
▁मूर्तियों	-11.0415
▁निर्वाह	-11.0416
▁सिर्फ़	-11.0418
▁वास्तुकार	-11.0422
हल	-11.0425
▁धान	-11.0426
▁प्रांतों	-11.0433
▁नजदीक	-11.0437
▁व्यायाम	-11.0438
▁अपेक्षित	-11.0438
ry	-11.044
म्भ	-11.0441
▁बू	-11.0442
परक	-11.0448
▁डूब	-11.0449
▁जूनियर	-11.045
▁पौ	-11.0452
4°49′	-11.0453
▁पारसी	-11.0454
▁बालों	-11.0458
फ़ी	-11.0459
▁दुकान	-11.046
▁स्टोन	-11.0468
▁रेजिमेंट	-11.0469
▁बंदूक	-11.047
▁उन्नीसवीं	-11.047
▁अद	-11.0471
▁अभिव्यक्त	-11.0476
▁धनुष	-11.0477
क्शन	-11.0478
▁स्तन	-11.048
▁ग्लोबल	-11.0481
▁जगन्नाथ	-11.0481
▁समृद्धि	-11.0483
गान	-11.0488
▁बदलते	-11.0493
▁81	-11.0493
▁वात	-11.0494
दीन	-11.0499
▁63	-11.05
▁एट	-11.0501
▁पिशाच	-11.0501
▁अर्द्ध	-11.0501
▁:-	-11.0501
▁वायुसेना	-11.0501
▁दूरबीन	-11.0502
▁निभाया	-11.0503
▁मार्गों	-11.0505
di	-11.0506
▁नाते	-11.0507
र्च	-11.0508
▁राष्	-11.0509
▁पूर्ववर्ती	-11.0513
▁मूवी	-11.0513
▁खरीदने	-11.0514
▁यूएस	-11.0514
▁उदर	-11.0518
▁निकलकर	-11.052
▁दीप	-11.0521
▁शै	-11.0522
कॉम	-11.0523
ेटर	-11.0524
▁तस्वीर	-11.0525
ोट	-11.0532
▁उपनिषद	-11.0532
▁one	-11.0532
▁युनाइटेड	-11.0532
▁सम्भावना	-11.0533
▁उपज़िल	-11.0533
▁79	-11.0535
▁रोलिंग	-11.0537
परास्त	-11.0537
▁सुनकर	-11.0539
ेंगे	-11.054
सेनी	-11.0541
▁फु	-11.0544
▁भुज	-11.0545
▁3000	-11.0546
▁ग्रीस	-11.0547
▁आज़ाद	-11.055
▁भाष्य	-11.0555
▁स्वत	-11.0561
▁गुज़र	-11.0562
▁99	-11.0563
▁टा	-11.0564
▁कोलेस्ट्रॉल	-11.0564
▁बुजुर्ग	-11.0564
▁बुखार	-11.0564
▁विद्यालयों	-11.0564
▁वाद	-11.0566
▁उद्भव	-11.0568
▁घोर	-11.0571
आप	-11.0572
ुस	-11.0573
ाओं	-11.0573
▁अधिकृत	-11.0576
▁देंगे	-11.0578
▁ज़ी	-11.0579
▁दक्ष	-11.0583
▁विश्वसनीय	-11.0583
रेखा	-11.0586
▁कोल	-11.0587
▁खिलाफ़	-11.0589
▁शुक्र	-11.059
▁स्टेशनों	-11.0596
▁मरम्मत	-11.0596
▁प्रोटोकॉल	-11.0596
▁अन्वेषण	-11.0596
नल	-11.0596
▁चढ़	-11.0596
▁गुहा	-11.0597
▁उदार	-11.0599
चौ	-11.0604
▁कमांडर	-11.0606
▁धर्मशास्त्र	-11.0615
▁उपायों	-11.0617
▁हस्त	-11.0621
▁लड़	-11.0627
▁कैटरीना	-11.0628
▁अभिन्न	-11.0642
्ली	-11.0648
विधि	-11.0649
▁रिहा	-11.065
ity	-11.0657
ोत	-11.0659
▁कारावास	-11.066
▁डेटाबेस	-11.066
▁had	-11.066
▁भूतपूर्व	-11.0661
ka	-11.0669
▁प्रतिबंधित	-11.0671
▁घोल	-11.0672
▁प्रदर्शनी	-11.0676
▁विश्वनाथ	-11.0676
र्ण	-11.0682
▁बेचा	-11.0686
▁जला	-11.0687
▁विकृत	-11.0687
▁कानूनों	-11.0689
म्स	-11.069
▁कांच	-11.0691
क्का	-11.0691
▁पुरातन	-11.0692
फि	-11.0694
▁मन्त्री	-11.0695
▁विचित्र	-11.0695
▁जाएंगे	-11.0697
बिट	-11.0697
▁शैलियों	-11.07
▁ब्र	-11.0702
ियत	-11.0704
ow	-11.0705
▁रेत	-11.0707
ांकित	-11.0708
▁प्रत्यय	-11.071
ड्	-11.072
वाय	-11.0721
▁बताने	-11.0724
▁कतिपय	-11.0724
▁तुग़लक़	-11.0724
▁प्रतिकूल	-11.0725
▁स्प	-11.073
ाड	-11.0731
▁डै	-11.0731
▁गोल्ड	-11.0732
▁व्हिस्की	-11.0734
▁गुर्जर	-11.0738
िज़	-11.0739
▁पश्च	-11.0742
ाते	-11.0744
▁दू	-11.0747
▁पुर्तगाल	-11.0751
▁चै	-11.0753
▁Indian	-11.0753
▁हार्ड	-11.0753
▁प्रतिरूप	-11.0756
▁तुलसी	-11.0756
र्रूखाबाद	-11.0757
▁टोक्यो	-11.0757
▁सुदृढ़	-11.0757
▁सम्पत्ति	-11.0757
▁रविवार	-11.0758
▁क्षमा	-11.0758
▁अफ़्रीकी	-11.076
ver	-11.0761
▁एन्	-11.0761
▁}	-11.0763
डॉ	-11.0764
्टि	-11.0768
▁व्याख्यान	-11.077
▁राक्षस	-11.0772
▁मन्दिरों	-11.0773
▁भली	-11.0775
▁पाद	-11.0775
▁नारी	-11.0776
ट्रा	-11.0778
▁आक्साइड	-11.0779
▁कोमल	-11.0785
▁राष्ट्रमण्डल	-11.0791
▁जिन्ना	-11.0793
▁वरन्	-11.0794
▁खलीफा	-11.0795
▁मार्	-11.0802
▁मॉल	-11.0802
um	-11.0804
तार	-11.0804
▁सूरत	-11.0807
तुल	-11.0807
▁खां	-11.0808
▁सांख्य	-11.081
वार्ड	-11.0815
वत्	-11.0816
▁अवयवों	-11.0816
▁भाषी	-11.0817
▁जीवविज्ञान	-11.0818
▁घोष	-11.0819
अव	-11.0819
ूँ	-11.082
▁बढा	-11.082
▁बेगूसराय	-11.0822
▁क्लोरीन	-11.0822
▁परिश्रम	-11.0822
▁भाइयों	-11.0822
▁49	-11.0823
▁महासभा	-11.0823
ba	-11.0823
▁गैलरी	-11.0823
▁हालत	-11.0825
82	-11.0826
फ़े	-11.083
सिटी	-11.083
91	-11.0832
इट	-11.0833
▁कहती	-11.0833
▁लैंस	-11.0834
▁सार्वभौमिक	-11.0836
▁स्थाई	-11.0838
ci	-11.084
▁उड़	-11.0843
▁सूचक	-11.0843
▁रुप	-11.0843
▁स्वयंसेवक	-11.0851
▁दुश्मन	-11.0852
▁आशंका	-11.0854
▁सनातन	-11.0855
▁ग्रंथि	-11.0856
▁कस्बा	-11.0858
▁घूम	-11.0858
▁शैवाल	-11.0862
▁सीटें	-11.0862
▁क्ले	-11.0864
▁पत्ते	-11.0866
ूल	-11.0866
▁निर्णायक	-11.0867
गम	-11.0869
▁कूट	-11.0869
▁निरूपण	-11.087
▁रोज	-11.0871
रक्षित	-11.088
▁सीजन	-11.0881
▁बाय	-11.0883
▁अनन्त	-11.0886
▁बंगलुरु	-11.0887
▁भूटान	-11.0887
▁उपरान्त	-11.0888
▁सहारे	-11.0888
▁बीजापुर	-11.0888
र्ष	-11.0893
▁बनना	-11.0896
▁आयतन	-11.0897
्ब	-11.0898
▁बाँट	-11.0899
▁कास्त्रो	-11.0901
मण्डल	-11.0901
▁शर	-11.0902
▁संग	-11.0904
▁दर्शाते	-11.0908
▁प्राकृत	-11.0908
▁फुल	-11.0911
▁क्रि	-11.0911
▁मान्यताओं	-11.0913
▁किरणों	-11.0915
▁एर	-11.0915
▁अस्पष्ट	-11.092
▁डार्विन	-11.092
▁कारखाने	-11.092
▁जादूगर	-11.0925
कता	-11.0925
▁पॉ	-11.0927
▁वुड	-11.0929
▁नैतिकता	-11.093
▁सजीव	-11.0931
▁महाद्वीपीय	-11.0934
म्म	-11.0935
▁रुख	-11.0941
घु	-11.0943
्से	-11.0946
▁पाली	-11.0946
▁मर्	-11.0948
▁दुख	-11.095
▁जंतु	-11.095
▁बीकानेर	-11.0953
▁फ़्रांस	-11.0953
▁गर्दन	-11.0953
▁फिट	-11.0955
▁1929	-11.0956
▁संचित	-11.0956
ारी	-11.0956
▁नाव	-11.0957
hi	-11.096
▁राष्ट्रवादी	-11.0962
▁निष्पादन	-11.0966
▁दर्पण	-11.0968
▁पाठकों	-11.0968
▁war	-11.0972
सेट	-11.098
de	-11.0983
ीत	-11.0983
▁कैल्शियम	-11.0986
▁सावरकर	-11.0986
▁ऑर	-11.0987
▁अतिथि	-11.0989
धाम	-11.0989
▁समानांतर	-11.0989
बै	-11.099
▁ब्राज़ील	-11.0999
ss	-11.0999
▁41	-11.1
▁भक्तों	-11.1004
ck	-11.1005
▁इसमे	-11.1007
▁स्नेह	-11.1009
▁बर्न	-11.1012
▁कहाँ	-11.1017
विश्व	-11.1017
▁उत्तीर्ण	-11.102
▁बच्चा	-11.102
▁सामरिक	-11.102
▁पुनर्निर्माण	-11.102
▁कोर	-11.1021
▁स्थिरता	-11.1021
▁महानगरीय	-11.1024
▁इंकार	-11.1025
▁आसन	-11.1029
▁लक्ष्यों	-11.1029
▁सन्त	-11.1032
▁जोड़कर	-11.1035
ान्	-11.1035
▁==	-11.1043
▁मैदानी	-11.105
▁25.10	-11.1053
▁शोधकर्ताओं	-11.1056
▁An	-11.106
▁ट्रीय	-11.1061
मस	-11.1064
डू	-11.1064
▁यंत्रों	-11.1066
▁जलीय	-11.1068
▁चिह्नित	-11.1069
ालय	-11.1072
ब्रह्म	-11.1073
▁तालिका	-11.1075
हत	-11.1079
▁मेवाड़	-11.1079
▁आयाम	-11.108
क्षा	-11.1085
▁तलाक	-11.1086
▁कार्यान्वयन	-11.1086
▁दरवाजे	-11.1086
▁फैसले	-11.1086
▁विद्यार्थियों	-11.1086
▁समाजवाद	-11.1087
▁लायक	-11.1088
▁वाल	-11.1088
go	-11.109
▁आघात	-11.109
▁उपवास	-11.1091
▁नागा	-11.1092
▁हल्का	-11.1095
मिट	-11.1096
▁प्ले	-11.1101
▁समर्थ	-11.1103
गृह	-11.1103
जिस	-11.1104
▁अरबों	-11.1108
बस	-11.1109
रचना	-11.111
कड़	-11.1113
ट्	-11.1116
▁रिश्ते	-11.1117
▁खनन	-11.1118
▁देन	-11.1119
▁फाउंडेशन	-11.112
▁नॉर्थ	-11.112
▁मिर्च	-11.1121
▁हिटलर	-11.1121
▁चक्रवर्ती	-11.1121
हरि	-11.1122
▁राहुल	-11.1122
▁चित्रकला	-11.1123
▁अज	-11.1123
जाति	-11.1127
▁नाप	-11.1129
▁फ़िर	-11.1129
200	-11.1131
▁संभाल	-11.1132
त्रि	-11.1133
▁53	-11.1134
lu	-11.1136
▁प्रामाणिक	-11.1137
▁चित्रकार	-11.1138
▁कार्	-11.1138
कुछ	-11.1143
▁54	-11.1144
▁दावे	-11.1144
▁शर्करा	-11.1151
▁डेनमार्क	-11.1154
▁उत्थान	-11.1154
▁कंपनियां	-11.1154
▁राजदूत	-11.1155
▁बीबीसी	-11.1155
▁अनुचित	-11.1155
▁दीवान	-11.1155
▁अछूत	-11.1155
नाशक	-11.1157
▁लुई	-11.116
▁प्रोजेक्ट	-11.116
▁रक्षक	-11.1162
▁लिखना	-11.1163
▁गैसों	-11.1163
रित	-11.1169
▁निकलते	-11.1169
▁सन्धि	-11.1174
▁सदृश	-11.1176
▁निकाली	-11.1178
प्रवाह	-11.1178
▁1910	-11.1185
ज़न	-11.1185
▁भारती	-11.1186
▁हड्डी	-11.1188
▁शूटिंग	-11.1188
▁चाचा	-11.1188
▁एजेंट	-11.1193
▁विशेषताएँ	-11.1194
ोसिस	-11.1194
शिप	-11.12
शिव	-11.1205
▁डेल्टा	-11.1212
▁भवनों	-11.1213
तृ	-11.1214
▁भूरे	-11.1214
▁पहना	-11.1215
▁सेवाएँ	-11.1216
▁उपर	-11.1217
कोर	-11.1217
▁चौड़ा	-11.1218
गोर	-11.122
▁अवशोषित	-11.1221
▁रोचक	-11.1222
▁ब्यूरो	-11.1224
▁1918	-11.1225
▁विन	-11.1225
▁आचार	-11.1225
साइड	-11.1227
▁मशीनों	-11.1227
▁1.5	-11.123
▁महिलाएं	-11.1233
▁ऐक्ट	-11.1236
म्य	-11.1237
▁विमानों	-11.1246
▁86	-11.1249
▁अश्व	-11.1255
▁सुप्रीम	-11.1255
▁85.90	-11.1255
▁शत	-11.1255
▁उपभोग	-11.1256
▁पत्तियों	-11.1256
▁विफलता	-11.1256
▁1934	-11.1257
▁परम्परागत	-11.1257
▁छोड़ा	-11.1258
▁गोल्डन	-11.1258
▁पादप	-11.1262
ंथ	-11.1271
्ने	-11.1273
▁निकटता	-11.1275
▁क्रे	-11.1277
प्रसार	-11.1284
▁अध्यापक	-11.1287
▁राष्ट्रवाद	-11.1288
▁शृंगार	-11.1289
▁बट	-11.1289
▁कार्तिक	-11.129
▁नवजात	-11.129
आर्य	-11.129
▁भावों	-11.1292
तिया	-11.1295
थन	-11.1297
ga	-11.13
▁यश	-11.13
▁शाखाएँ	-11.13
▁चीज़	-11.1301
फिल	-11.1301
▁प्रमेय	-11.1304
ब्रिज	-11.1308
▁ई॰	-11.1311
▁मुह	-11.132
ष्टि	-11.1322
▁अनुष्ठान	-11.1323
▁क़ब्ज़	-11.1324
▁हवेली	-11.1324
▁वास्तविकता	-11.1326
ight	-11.1326
▁धा	-11.1327
▁प्रश्नों	-11.1328
ानन्द	-11.133
▁सेनानी	-11.1332
▁शर्तों	-11.1333
सेवा	-11.1337
▁क्षण	-11.1338
land	-11.1339
रेन	-11.1343
▁अकार्बनिक	-11.1348
▁समर्थकों	-11.1348
▁जटिलता	-11.1349
अस	-11.1349
▁ढूंढ	-11.135
▁नासा	-11.1358
▁लाभदायक	-11.1359
▁1943	-11.136
▁खु	-11.1361
▁अबू	-11.1367
▁गै	-11.1371
▁कैल	-11.1376
▁दूत	-11.1378
▁स्पेस	-11.1381
▁जोशी	-11.1383
ru	-11.1384
▁सिं	-11.139
▁गोविंद	-11.1392
▁नक्काशी	-11.1392
▁बर्लिन	-11.1393
कोश	-11.1393
▁सैम	-11.1398
▁उपभोक्ताओं	-11.14
▁दोहरा	-11.14
वेयर	-11.1401
ेगा	-11.1403
▁कुलीन	-11.1406
▁सिद्धान्तों	-11.1408
▁no	-11.1412
▁लगाई	-11.1417
▁त्योहार	-11.1426
▁सबके	-11.1427
▁ट्रॉफी	-11.1427
▁हॉलीवुड	-11.1427
▁पाट	-11.1428
▁ड्राइवर	-11.1428
▁स्ट	-11.1428
▁1500	-11.1428
▁सफाई	-11.1429
▁59	-11.1436
-5	-11.1442
▁ह्रदय	-11.1444
▁पण्डित	-11.1447
▁बाँटा	-11.145
▁Mo	-11.1452
▁रजत	-11.1453
▁पाठ्य	-11.1453
ट्टा	-11.1455
बर्ट	-11.1455
स्ति	-11.1459
▁चेष्टा	-11.1462
▁रिजर्व	-11.1462
▁यूरो	-11.1462
▁साइबेरिया	-11.1462
▁प्रस्तुति	-11.1462
▁1938	-11.1464
▁स्वाधीनता	-11.1465
▁गुलाम	-11.1466
▁घुस	-11.1467
▁परमेश्वर	-11.1472
▁फारस	-11.1473
▁नाडु	-11.1473
ब्रि	-11.1474
वॉ	-11.1475
िआ	-11.1476
ts	-11.1478
▁बाजारों	-11.1478
▁पनप	-11.1486
▁थल	-11.1487
▁धूम	-11.1488
साहेब	-11.1489
tra	-11.1494
वेट	-11.1495
▁भयानक	-11.1497
▁मामूली	-11.1497
▁कुश्ती	-11.1497
▁एप्पल	-11.1498
▁सर्वथा	-11.1499
▁अजमेर	-11.1499
▁राजतंत्र	-11.1501
▁सर्वत्र	-11.1503
▁नाल	-11.1505
▁सत	-11.1506
▁राज्यसभा	-11.1508
दिन	-11.151
कण	-11.1513
▁पुरस्कारों	-11.1513
▁एड्स	-11.1517
iv	-11.1518
जनरल	-11.1525
▁इस्लामिक	-11.1528
▁शस्त्र	-11.1529
▁बेल्जियम	-11.1532
▁स्वचालित	-11.1532
▁ज्वार	-11.1533
▁ख़ुद	-11.1534
▁सूजन	-11.1534
▁लार्ड	-11.1537
▁उदाहरणार्थ	-11.1538
▁झीलों	-11.1539
▁8.	-11.1539
▁मैक्स	-11.1545
टेन	-11.1547
उद	-11.1552
▁मुकदमे	-11.1556
▁एम्	-11.1561
युद्ध	-11.1561
Xj	-11.1562
▁स्वा	-11.1566
▁क्षैतिज	-11.1567
▁मांसपेशियों	-11.1567
▁बॉम्बे	-11.1567
▁रॉय	-11.1567
▁श्वास	-11.1567
▁ब्रजभाषा	-11.1567
▁उस्मान	-11.1567
▁मानवता	-11.1573
▁चीजों	-11.1573
▁संरक्षक	-11.1574
शो	-11.1576
▁कंस	-11.1581
▁आधी	-11.1585
चरित	-11.1588
ात्	-11.1588
कं	-11.1591
▁सहयोगियों	-11.1601
▁श्रमिकों	-11.1602
▁उन्मूलन	-11.1602
▁द्विवेदी	-11.1602
▁also	-11.1602
▁डाउनलोड	-11.1602
▁पुरातात्विक	-11.1602
▁टाइगर	-11.1602
खर	-11.1607
▁उधार	-11.1609
▁राजेन्द्र	-11.1616
स्लो	-11.1621
▁सेतु	-11.1624
ट्रिक	-11.1635
▁मरीजों	-11.1635
▁कॉमेडी	-11.1637
▁ज्येष्ठ	-11.1637
▁वाजपेयी	-11.1637
▁नमूना	-11.1637
▁समकक्ष	-11.1638
▁देहांत	-11.1639
▁संरचनात्मक	-11.1639
न्ति	-11.1641
▁विंडोज़	-11.1641
▁नायर	-11.1646
▁जीवाणुओं	-11.1646
हट	-11.1646
▁वाइन	-11.1647
▁ex	-11.1648
▁चन्द	-11.1649
▁निकली	-11.165
▁अंडर	-11.1654
▁दन्त	-11.1659
जात	-11.1659
▁लेंस	-11.167
▁सींग	-11.167
बिन	-11.167
द्वीप	-11.1672
▁विस्तारित	-11.1673
सर्व	-11.1673
▁यूनेस्को	-11.1673
▁तुलसीदास	-11.1673
▁फैशन	-11.1674
▁क्रान्तिकारी	-11.1674
▁1923	-11.1675
▁1905	-11.1676
रोधी	-11.1677
▁वनस्पतियों	-11.1678
▁विं	-11.168
च्	-11.1681
ical	-11.1683
▁अकाल	-11.1683
▁लैंड	-11.1684
▁ज़रूरत	-11.1684
दाद	-11.1684
▁थान	-11.1684
वं	-11.169
▁तपेदिक	-11.1691
ब्ब	-11.1691
▁पूर्वजों	-11.1693
▁छीन	-11.1693
▁कलाओं	-11.1693
वश	-11.1702
▁जलप्रपात	-11.1708
▁पसंदीदा	-11.1708
▁सोलह	-11.1709
▁बांट	-11.1709
▁समूच	-11.1709
▁खुलासा	-11.1712
▁फ्रांसिस	-11.1713
गणित	-11.1714
ance	-11.1714
▁बॉल	-11.1717
हाल	-11.1719
्टी	-11.1722
ंडर	-11.1722
ॉय	-11.1722
निर्मित	-11.1723
शर	-11.1725
डेट	-11.1732
चीन	-11.1733
▁700	-11.1735
ोंग	-11.1744
▁जैसलमेर	-11.1744
▁79°24′	-11.1744
▁color	-11.1744
▁त्रिज्या	-11.1744
▁स्थानांतरण	-11.1746
▁83	-11.1748
▁बड़	-11.1749
▁गिना	-11.175
वाचक	-11.1751
▁इनपुट	-11.1752
▁छठे	-11.1755
ॉक्स	-11.1763
▁डब्ल्यू	-11.1767
्ह	-11.1769
कस	-11.1771
▁चढ़ा	-11.1774
ॉल	-11.1776
ाइ	-11.1777
श्य	-11.1778
▁तंग	-11.1781
▁गोलाकार	-11.1782
▁1916	-11.1783
▁स्कॉट	-11.1784
श्त	-11.1784
▁ग्रिड	-11.1785
▁ऋषियों	-11.1785
तत्व	-11.1787
▁शीतल	-11.1789
▁इमारतें	-11.179
▁कुंड	-11.1795
▁सोशल	-11.1805
▁तरंगों	-11.1808
▁अनुभवों	-11.181
▁विज्ञापनों	-11.1816
▁रुधिर	-11.1816
▁अनुयाई	-11.1816
▁डाक्टर	-11.1817
▁शनिवार	-11.1817
▁फरीदपुर	-11.1818
▁कपड़ा	-11.1819
▁71	-11.182
▁साहस	-11.1828
कोड	-11.1833
▁ओक	-11.1835
टेम्स	-11.1837
भाष	-11.1838
ाण	-11.1838
▁खरीदा	-11.1839
▁चूर्ण	-11.1839
▁68	-11.1839
▁लगीं	-11.1845
िकाओं	-11.1849
▁अवस्थाओं	-11.185
खान	-11.1851
▁ब्रे	-11.1852
ud	-11.1854
लक	-11.1856
जीत	-11.1858
ary	-11.1858
▁बताई	-11.1859
▁बसाया	-11.1861
गिरी	-11.1867
▁जीवनकाल	-11.1867
प्रिय	-11.1869
ोवा	-11.1869
▁केबल	-11.1871
▁चाँदी	-11.1871
एक्स	-11.1873
▁ऐन	-11.1875
▁लॉन्च	-11.1888
▁खुराक	-11.1888
फील्ड	-11.1889
▁परिधि	-11.1889
थर	-11.1889
▁राज्याभिषेक	-11.189
न्द्र	-11.1891
ांचल	-11.1891
▁जायेगी	-11.1891
▁1912	-11.1892
चालक	-11.1892
▁झुकाव	-11.1893
पौडी	-11.1894
▁श्रमिक	-11.1903
▁आधारभूत	-11.1903
▁वॉन	-11.1903
▁बज	-11.1909
▁हसन	-11.1909
जान	-11.191
▁असल	-11.1911
ern	-11.1912
स्टै	-11.1912
▁शास्त्रों	-11.1912
▁प्री	-11.1914
▁खोजने	-11.1917
ड्ड	-11.1917
स्तु	-11.1918
▁विज्ञानी	-11.1919
बॉ	-11.1921
इक	-11.1922
▁पैनल	-11.1923
▁पैन	-11.1923
▁व्यंग्य	-11.1924
गै	-11.1924
▁आन्ध्र	-11.1924
▁बम्बई	-11.1924
▁दुबारा	-11.1924
▁शिमला	-11.1925
▁i	-11.1925
▁कराते	-11.1925
▁प्रवर्तन	-11.1926
▁पंचांग	-11.1926
▁ढेर	-11.1929
▁बाँस	-11.1929
▁परिपूर्ण	-11.193
वात	-11.1932
विद्	-11.1935
per	-11.1937
he	-11.1945
▁बेर	-11.195
▁पालि	-11.1954
काम	-11.1955
▁ड्यूक	-11.1956
▁फैलने	-11.1958
▁पायलट	-11.1961
▁दोपहर	-11.1961
▁निजाम	-11.1961
▁तीर्थंकर	-11.1961
▁गणितज्ञ	-11.1962
▁पोलैंड	-11.1963
▁1933	-11.1964
▁प्रस्थान	-11.1965
▁वियतनाम	-11.1966
पुरुष	-11.1968
▁क्रय	-11.1968
रपुर	-11.1972
7°30′	-11.1974
ies	-11.1975
▁हीरोज़	-11.1976
mon	-11.1977
▁रोज़	-11.1977
▁महानगर	-11.1978
ted	-11.1981
▁शरद	-11.1985
▁गन	-11.1986
▁बालू	-11.1989
ish	-11.199
▁कोच	-11.199
▁अनुकूलन	-11.199
ge	-11.1993
राष्ट्र	-11.1993
▁‘‘	-11.1995
▁गेहूँ	-11.1998
▁उत्परिवर्तन	-11.1998
▁समाहित	-11.1998
9%	-11.1998
▁नवीनतम	-11.2
▁विनिर्माण	-11.2001
▁सूचकांक	-11.2001
▁स्वतः	-11.2002
▁अग	-11.2002
▁नाकाम	-11.2002
▁प्रहार	-11.2005
Xm	-11.2005
▁गेल	-11.2006
▁कुर	-11.2008
पानी	-11.2009
▁कलां	-11.201
▁नागरिकता	-11.2012
▁नेताजी	-11.2012
▁बग	-11.2013
▁पूना	-11.2015
▁जानेवाले	-11.2018
्मा	-11.202
▁हजरत	-11.2029
▁निषेध	-11.2034
▁वंचित	-11.2034
▁कर्नल	-11.2035
▁उपाध्यक्ष	-11.2035
▁मिन	-11.2036
▁हिरण	-11.2036
▁1926	-11.2037
▁जीती	-11.2039
▁घटा	-11.204
▁St	-11.2041
▁कोशिकाएं	-11.2041
▁मेघ	-11.2043
▁शुरूआती	-11.2049
पत्ति	-11.2052
▁यूरोपियन	-11.2052
▁अस्त्र	-11.2058
▁क्र	-11.206
▁लास	-11.2063
केट	-11.2066
▁प्रदाता	-11.2069
वेश	-11.207
▁दिशाओं	-11.207
▁आंबेडकर	-11.2071
▁ट्वेंटी	-11.2071
▁ध्वस्त	-11.2071
▁प्रांगण	-11.2071
▁सामग्रियों	-11.2071
▁उत्तराखंड	-11.2071
▁दोबारा	-11.2071
▁कट्टर	-11.2072
▁कोयले	-11.2072
▁पुरूष	-11.2075
रिंग	-11.2075
▁पैसा	-11.2076
▁दबा	-11.2078
प्रदान	-11.208
▁बसें	-11.2081
Xp	-11.2086
कवि	-11.2091
▁न्यूज़	-11.2091
▁क्षार	-11.2093
▁पिन	-11.2094
▁प्रवर्तक	-11.2096
सूर	-11.2099
▁जागीर	-11.2105
▁योद्धा	-11.2105
मंद	-11.2107
▁Ma	-11.2107
▁हिंसक	-11.2108
▁दिलाने	-11.2118
▁प्रेमी	-11.2121
ग्रा	-11.2122
▁निभाने	-11.2123
▁me	-11.2126
ग्रे	-11.213
िब	-11.2136
▁डिज़्नी	-11.2145
▁मिल्वौकी	-11.2145
▁विधवा	-11.2145
▁पोशाक	-11.2145
▁सुलभ	-11.2146
▁उत्तरदायित्व	-11.2146
▁has	-11.2146
▁अल्बर्ट	-11.2146
▁1915	-11.2151
▁कामयाब	-11.2151
▁परिष्कृत	-11.2152
▁औषधियों	-11.2152
▁भीषण	-11.2153
ज्	-11.2154
▁निकटवर्त	-11.2156
द्य	-11.2157
पोल	-11.2158
्वी	-11.2168
वारा	-11.217
तया	-11.217
्नी	-11.2172
▁प्रविष्ट	-11.2174
▁वाशिंगटन	-11.2174
▁स्थ	-11.2176
▁पूजन	-11.2178
▁व्याप्त	-11.2179
साल	-11.218
▁सर्किट	-11.2183
▁मुद्दा	-11.2183
▁घंटों	-11.2184
▁विश्राम	-11.2184
▁बेसिन	-11.2187
▁रॉ	-11.2188
▁विजयनगर	-11.219
da	-11.2193
▁समुच्चय	-11.2194
vi	-11.2202
ap	-11.2202
▁मरुस्थल	-11.2203
▁कुशलता	-11.2208
▁हीरो	-11.2209
बान	-11.2217
all	-11.2219
▁चैंपियन	-11.222
▁निपटने	-11.222
▁युवराज	-11.222
▁मकबरा	-11.222
▁रखरखाव	-11.222
▁मुकुट	-11.2221
▁अम	-11.2221
▁भावनात्मक	-11.2222
▁आखिर	-11.2225
Xq	-11.2225
ुला	-11.2228
भाषी	-11.2228
▁फूट	-11.2231
थु	-11.2234
ाली	-11.2234
▁28.	-11.2235
▁San	-11.2241
ेस्ट	-11.2242
▁उभरा	-11.2248
▁वाई	-11.2248
ैल	-11.225
▁क्रमिक	-11.2252
▁आदिम	-11.2252
▁प्रतिज्ञा	-11.2256
पुट	-11.2256
▁कुष्ठरोग	-11.2258
6%	-11.226
ग्न	-11.226
▁सच्चाई	-11.2261
चरण	-11.2261
ेम	-11.2261
▁पादरी	-11.2262
▁राजनयिक	-11.2262
▁भंडारण	-11.2263
▁घात	-11.2263
ज़ि	-11.2265
▁अं	-11.2265
ेन्	-11.2265
▁डेविस	-11.2266
▁डु	-11.2266
शान	-11.2268
वृत्ति	-11.2269
▁ईमेल	-11.227
▁कारों	-11.2274
▁मोड	-11.2276
ेबल	-11.2287
▁फ्रे	-11.2289
सेंट	-11.229
वांछित	-11.229
▁वैद्युत	-11.2292
▁प्	-11.2292
पान	-11.2295
▁मुंगेर	-11.2296
▁मेहनत	-11.2296
विद	-11.2296
▁कुत्ते	-11.2296
▁सघन	-11.2297
▁दाँत	-11.2298
▁सूअर	-11.2298
▁800	-11.23
▁?	-11.2303
ियापुर	-11.2303
▁संगत	-11.2306
▁चैतन्य	-11.2309
प्त	-11.231
▁कटरी	-11.2316
खु	-11.2318
ग्रंथ	-11.2319
▁उठ	-11.2319
▁संभाला	-11.232
▁जोसेफ	-11.2323
▁कूद	-11.2324
▁टेक	-11.2328
▁केन्द्रों	-11.2332
▁आनुवांशिक	-11.2333
▁इंस्टीट्यूट	-11.2333
▁इथियोपिया	-11.2333
▁लाइब्रेरी	-11.2333
▁ख़िलाफ़	-11.2334
▁अन्तर्	-11.2334
त्स	-11.2335
▁निष्ठा	-11.2335
सभा	-11.2335
▁मरीज	-11.2336
▁चीजें	-11.2337
▁बताती	-11.2337
▁वोल्ट	-11.2338
▁प्रोग्रामिंग	-11.2341
▁डेल	-11.2347
▁10,000	-11.2348
▁पलट	-11.2352
▁मॉ	-11.2353
▁सत्	-11.2356
▁उलट	-11.2358
नन	-11.2359
पित	-11.2364
▁दस्त	-11.2369
्ति	-11.2369
▁टर्मिनस	-11.2371
▁निवारण	-11.2371
▁विराजमान	-11.2371
▁हाँ	-11.2372
▁1911	-11.2375
बुल	-11.2377
‘	-11.2378
ाभ	-11.2378
▁चिकित्सीय	-11.2379
▁ब्ल	-11.2379
▁सीमेंट	-11.2381
▁जॉर्जिया	-11.2382
▁सर्वे	-11.2382
जन्य	-11.2384
▁विशुद्ध	-11.2387
▁सख्त	-11.2389
▁सुंदरता	-11.239
▁आवर्त	-11.239
▁स्टीव	-11.2391
▁मिलन	-11.2394
ाधिकार	-11.2395
▁मेजबान	-11.2399
टेल	-11.2399
▁थॉमसन	-11.2401
्ते	-11.2402
▁66	-11.2403
▁82	-11.2404
▁आपराधिक	-11.241
▁हरिद्वार	-11.241
▁रमन	-11.2411
▁अर्थों	-11.2412
▁बिक	-11.2413
▁पश्चिमोत्तर	-11.2413
▁राजभाषा	-11.2414
▁उपन्यासकार	-11.2416
▁लौटा	-11.2417
▁विद्रोही	-11.2417
▁माइ	-11.2417
नाल	-11.2417
▁धूम्रपान	-11.2418
तान	-11.242
ोज	-11.2421
▁बिगड़	-11.2427
▁प्रकाशक	-11.2428
▁विवादों	-11.2431
▁मंद	-11.2439
▁पहने	-11.2442
▁लौटे	-11.2443
फोन	-11.2444
▁सेवानिवृत्त	-11.2444
कीय	-11.2445
▁धर	-11.2445
▁हाइड्रो	-11.2445
्ना	-11.2447
▁परमात्मा	-11.2448
▁पर्याय	-11.2449
▁दीक्षित	-11.2452
▁तत्पश्चात्	-11.2452
रेल	-11.2453
▁कैमरा	-11.2455
▁ठंड	-11.2462
▁तोड़ने	-11.2464
ौरी	-11.2465
आम	-11.2466
▁ब्राउन	-11.2471
▁सातवीं	-11.2475
्ती	-11.2475
▁वार्ड	-11.2475
▁आंखों	-11.2482
ाणु	-11.2483
प्ले	-11.2485
▁टाई	-11.2486
▁मज़बूत	-11.2486
▁कटौती	-11.2487
▁बाइबिल	-11.2487
▁पराजय	-11.2487
▁जाहिर	-11.2487
▁टिक	-11.2491
▁धमनी	-11.2493
मेड	-11.2495
▁समस्याएं	-11.2497
मिनी	-11.2497
▁विल्	-11.2497
▁हार्ट	-11.2498
▁धुरी	-11.2501
▁अनुकरण	-11.2501
▁बारी	-11.2502
▁फट	-11.2504
▁माली	-11.2505
▁विचारक	-11.2506
मास	-11.2506
▁गुप्ता	-11.251
किल	-11.251
▁ब्	-11.2513
▁शिकारी	-11.2514
हस	-11.2514
ण्डा	-11.2517
▁सिखों	-11.2518
▁अंग्रेज़ों	-11.2521
▁ह्रास	-11.2522
▁अपभ्रंश	-11.2525
▁अभिप्राय	-11.2525
▁मृग	-11.2526
▁डीवीडी	-11.2526
▁बनीं	-11.2531
▁गलती	-11.2531
7°13′	-11.2532
▁ग्लास	-11.2534
▁मजदूर	-11.2535
▁लेप	-11.2537
प्रेम	-11.2538
ran	-11.2538
▁मनाने	-11.2544
▁बां	-11.2547
▁समर	-11.2547
▁विपक्ष	-11.2554
▁काबुल	-11.2555
▁आर्मी	-11.2557
▁ब्रिज	-11.2557
▁87.02	-11.2564
▁अनौपचारिक	-11.2564
▁साधु	-11.2564
hy	-11.2564
▁अप्रत्यक्ष	-11.2565
▁1907	-11.2566
.5%	-11.2567
रोम	-11.2567
▁मूर्तियां	-11.2567
▁रिक्त	-11.2568
▁क्षमताओं	-11.257
▁कराती	-11.2571
ापुर	-11.2575
▁तैल	-11.2575
▁चूना	-11.2576
डब्ल्यू	-11.2577
ैर	-11.2578
स्टिक	-11.258
▁अवि	-11.2582
▁कच्छ	-11.2584
बेन	-11.2585
करी	-11.2586
▁देशांतर	-11.2587
▁इंक	-11.2587
▁भिक्षु	-11.2588
नान	-11.2594
▁वु	-11.2595
-6	-11.2597
▁चौदह	-11.2599
▁कुंडली	-11.26
▁आशीर्वाद	-11.2603
▁तार्किक	-11.2603
▁बोलचाल	-11.2603
▁पेट्रोलियम	-11.2603
ell	-11.2603
▁वर्तनी	-11.2603
▁छू	-11.2603
▁दायरे	-11.2603
ध्य	-11.2604
▁एसी	-11.2604
▁1914	-11.2606
▁स्वराज	-11.2608
▁मोल	-11.2608
▁एस्	-11.2611
पिंग	-11.2611
▁घिर	-11.2616
▁खोलने	-11.2616
▁कोकेन	-11.2619
▁मापा	-11.2619
▁रहेंगे	-11.2621
िज्म	-11.2622
▁अगला	-11.2622
▁पालम	-11.2623
▁कड़ा	-11.2624
▁समीक्षकों	-11.2625
▁मेटा	-11.2628
▁जमाने	-11.263
ब्रा	-11.2636
▁सिन्ध	-11.2639
▁अनियमित	-11.2639
▁विस्फोटक	-11.2639
▁आकस्मिक	-11.2642
▁पाइथोगोर	-11.2642
▁क्षतिग्रस्त	-11.2642
▁Co	-11.2643
▁कायमगंज	-11.2643
▁इक	-11.2644
▁कोट	-11.2645
▁ढलान	-11.2645
श्र	-11.2647
कुर	-11.2647
▁संस्	-11.265
▁अटल	-11.2652
कार्ड	-11.2663
▁अंध	-11.2663
▁गेंदबाज	-11.2666
दारी	-11.2669
वर्धन	-11.267
▁समझना	-11.2671
▁स्पेंसर	-11.2673
रत्न	-11.2676
्टे	-11.2681
▁रशीद	-11.2681
▁छुट्टी	-11.2681
▁महासचिव	-11.2681
जीवी	-11.2681
▁अमीरात	-11.2682
▁सूफी	-11.2682
▁सोमवार	-11.2683
▁कुंजी	-11.2683
किया	-11.2686
▁तिल	-11.269
▁जानता	-11.2692
▁आमेर	-11.2701
रेशन	-11.2703
▁पाषाण	-11.2703
▁परजीवी	-11.2711
सुर	-11.2717
डोर	-11.2717
▁उत्सर्जित	-11.272
▁छावनी	-11.272
▁पाण्डव	-11.272
▁सिन्हा	-11.2722
▁नरम	-11.2722
▁गुलाबी	-11.2723
▁बीमारियों	-11.2728
ीं	-11.273
▁डालते	-11.2732
▁अलगाव	-11.2735
▁कराई	-11.2735
▁रचा	-11.2737
▁दुष्ट	-11.2738
▁आठवीं	-11.2739
िप	-11.274
▁इंग्लिश	-11.2741
▁शरीफ	-11.2741
▁खुदरा	-11.2743
▁प्रशंसकों	-11.2749
▁झूठ	-11.2749
▁फ़िरोज़	-11.2753
▁कैम्ब्रिज	-11.276
▁हांगकांग	-11.276
▁पोटैशियम	-11.276
▁टेलीविज़न	-11.276
▁ग़ैर	-11.276
▁मैनचेस्टर	-11.276
▁स्थानिक	-11.2761
▁माहौल	-11.2761
▁दीर्घकालिक	-11.2761
▁तने	-11.2763
वैज्ञानिक	-11.2768
▁भगवती	-11.2774
▁1,000	-11.2774
▁खुर	-11.2775
ाद	-11.2777
मान्य	-11.2777
▁वैसा	-11.2778
▁दर्शाती	-11.2783
▁सीख	-11.2784
▁बोझ	-11.279
लस	-11.2792
▁मुगलों	-11.2793
▁खर	-11.2794
▁चमत्कार	-11.2795
राग	-11.2796
▁अनिश्चित	-11.2799
▁उपेक्षा	-11.28
▁महोत्सव	-11.28
▁मंदी	-11.28
▁नारंगी	-11.28
शीलता	-11.2802
▁निर	-11.2804
▁बदलता	-11.2806
▁उल	-11.2806
▁इज	-11.2811
▁लय	-11.2812
स्टेड	-11.2812
▁विद	-11.2817
ज़े	-11.2822
▁वर्णों	-11.2823
XI	-11.2835
ेला	-11.2838
▁क्षितिज	-11.2839
▁बिलासपुर	-11.2839
▁संदिग्ध	-11.2839
▁सुसज्जित	-11.2839
ैस	-11.284
▁दूरसंचार	-11.2841
▁भव	-11.2845
ंबर	-11.2847
चिंग	-11.2852
▁संवत्	-11.2855
▁नलिका	-11.2857
▁कर्	-11.2858
▁भेजी	-11.2858
ki	-11.2861
▁लावा	-11.2862
▁माई	-11.2864
▁निक	-11.2867
▁परमाणुओं	-11.2867
▁इलेक्ट्रान	-11.2868
वेर	-11.287
▁वीरता	-11.287
कत	-11.2872
▁नरेंद्र	-11.2875
9°30′	-11.2875
▁एंजिल्स	-11.2879
▁मकबरे	-11.2879
▁तंजानिया	-11.2879
▁दर्शाने	-11.2879
▁अलंकृत	-11.2879
▁सिक्कों	-11.288
▁पलायन	-11.288
▁हर्ष	-11.2881
▁संचालक	-11.2881
▁1908	-11.2882
▁खिल	-11.2886
▁सूक्ष्मदर्शी	-11.2888
▁खाल	-11.2889
▁टेलर	-11.2889
▁नारद	-11.289
▁पराग	-11.2893
मंड	-11.2897
▁सप्त	-11.2899
▁तीर	-11.29
▁बान	-11.2902
av	-11.2903
कृ	-11.2904
▁खेतों	-11.2906
ट्री	-11.2913
▁नौकर	-11.2914
▁क्	-11.2914
▁मौ	-11.2916
▁भाग्य	-11.2917
▁संतुलित	-11.292
▁संपादित	-11.292
▁सराहना	-11.292
▁हस्तांतरण	-11.292
▁दीपावली	-11.292
्की	-11.2923
▁कोचीन	-11.2925
▁धुन	-11.2926
▁मापने	-11.2927
▁जनवादी	-11.2928
▁50%	-11.293
धे	-11.2931
▁पद्धतियों	-11.2932
▁अंग्रेज़	-11.2934
▁अला	-11.2937
▁शोक	-11.2938
्टा	-11.2938
▁डीन	-11.2938
ज़ार	-11.2939
▁सीमाएं	-11.2941
▁कैट	-11.2942
▁बैठने	-11.2945
▁फ़ा	-11.2945
▁स्टेट्स	-11.2946
▁प्रान्तों	-11.2946
▁आर्थर	-11.2949
▁प्रकारों	-11.2949
▁लगाये	-11.2951
िंद	-11.2952
▁उत्तेज	-11.2952
इसके	-11.2956
▁मोम	-11.2958
रेस	-11.2958
▁मल्ल	-11.2959
▁काउंसिल	-11.296
▁आवागमन	-11.296
▁Con	-11.2961
▁राउंड	-11.2962
▁म्यूजिक	-11.2963
▁88	-11.2967
▁खुशी	-11.2968
सिद्ध	-11.2969
मद	-11.2971
▁सातवें	-11.2972
यार	-11.2972
मोन	-11.2973
ल्प	-11.2974
▁अंतः	-11.2975
▁पीस	-11.2976
ct	-11.2977
▁प्रतिरोधी	-11.2978
▁अंटार्कटिका	-11.2981
ल्ली	-11.2982
क्य	-11.2983
▁पेंट	-11.2986
ट्टी	-11.2986
▁निवेशकों	-11.2988
विजय	-11.2989
इंग	-11.2993
थि	-11.2994
वर्स	-11.2994
चालित	-11.2996
▁कन	-11.3
▁इलाक़े	-11.3
▁फ़्रांसिसी	-11.3
अभि	-11.3001
▁बरकरा	-11.3002
▁शोभा	-11.3003
▁अकेला	-11.3003
▁co	-11.3004
▁जयसिंह	-11.3004
▁इंसान	-11.3004
▁रिडल	-11.3005
म्मा	-11.3008
▁बरो	-11.3011
ल्य	-11.3014
ऐं	-11.302
रोली	-11.3021
▁तेलंगाना	-11.3021
▁आपदा	-11.3022
▁न्यून	-11.3023
▁संध्या	-11.3025
▁वन्यजीव	-11.3027
वालों	-11.3035
▁रोटी	-11.3038
रेख	-11.304
▁फेफड़ों	-11.3041
▁सीडी	-11.3041
▁बैंगलोर	-11.3041
▁अनुपम	-11.3041
▁कैफीन	-11.3041
▁यूनिक्स	-11.3041
▁बतौर	-11.3042
▁याचिका	-11.3043
▁चादर	-11.3043
tic	-11.3043
▁अंडमान	-11.3045
▁पाकर	-11.3045
▁घूर्णन	-11.3047
▁वायुमंडलीय	-11.305
▁काटकर	-11.3052
▁हंगरी	-11.3062
वली	-11.3062
▁लाला	-11.3066
▁कर्ता	-11.3068
-10	-11.307
▁अह	-11.3073
लियन	-11.3073
▁ग्राम्य	-11.3075
▁साह	-11.3081
▁अफ़्ग़ानिस्तान	-11.3082
▁क्वांटम	-11.3082
▁मदुरई	-11.3082
▁परशुराम	-11.3082
▁मधुमेह	-11.3082
▁शुक्राणु	-11.3082
▁परवर्ती	-11.3082
▁कुरुक्षेत्र	-11.3082
▁किलोग्राम	-11.3083
▁लड़के	-11.3085
नै	-11.3089
ॅन	-11.3091
ज्य	-11.3092
ख्या	-11.3093
▁बोलियों	-11.3097
▁आर्ट्स	-11.3098
XV	-11.3098
▁इंडो	-11.31
▁अध्यापन	-11.3101
▁प्ला	-11.3106
कुंड	-11.3108
▁विकृति	-11.3108
▁गुणा	-11.3112
शाही	-11.3114
▁उपक्रम	-11.3115
वस्तु	-11.3115
3%	-11.3116
मूलक	-11.3116
▁सौन्दर्य	-11.3123
▁ताइवान	-11.3124
▁आंख	-11.3128
▁सवारी	-11.3129
▁अंगूर	-11.313
▁प्रबन्ध	-11.3132
ाक्षर	-11.3134
▁विशेषज्ञता	-11.3134
▁गर्भवत	-11.3134
नाइट	-11.3136
भक्ति	-11.3136
▁फ़िल्में	-11.3138
▁वरदान	-11.3139
▁ज़रा	-11.314
▁संक्रामक	-11.3141
▁ऐनी	-11.3145
ेक्स	-11.315
▁धाराओं	-11.3151
▁डाले	-11.3152
स्टन	-11.3157
▁म्यू	-11.3162
▁कराना	-11.3164
▁ऑक्सफोर्ड	-11.3164
▁कश्यप	-11.3164
▁बलिदान	-11.3164
▁न्यायाधीशों	-11.3165
▁विशेषण	-11.3165
▁रामचंद्र	-11.3168
▁रैंकिंग	-11.3168
सित	-11.317
▁ट्राइ	-11.3171
मीन	-11.3172
ोश	-11.3175
निस	-11.3175
▁जर	-11.3178
स्कर	-11.3182
▁लेट	-11.3186
▁दरों	-11.3189
ात्म	-11.3191
▁चयनित	-11.3192
▁जनित	-11.3197
▁मक	-11.3198
▁चौकी	-11.32
▁इंडियाना	-11.3202
▁अर्जेंटीना	-11.3205
रोह	-11.3206
▁इलाका	-11.3207
ट्ठ	-11.321
▁95	-11.3212
ations	-11.3215
ोमा	-11.3218
खो	-11.3219
▁क़ुरआन	-11.322
▁बेरी	-11.3221
7°11′	-11.3223
▁डीसी	-11.3224
बिया	-11.3224
▁इसरो	-11.3227
one	-11.3227
▁यूके	-11.3228
स्को	-11.3234
▁दाग	-11.3238
▁गेंदबाजी	-11.3242
▁त्रिकोण	-11.3242
Xx	-11.3244
▁जनसांख्यिकी	-11.3244
्लो	-11.3247
▁उदहारण	-11.3247
▁रसीदपुर	-11.3247
▁1906	-11.325
▁चाप	-11.3252
▁क्रूज़	-11.3253
▁ललित	-11.3254
▁फील्ड	-11.3254
▁रण	-11.3255
ton	-11.3257
▁उधर	-11.3258
▁दस्तावेजों	-11.326
ीना	-11.3262
▁जाएं	-11.3263
▁क्लासिक	-11.3264
ब्ल	-11.3265
▁विश	-11.3266
▁62	-11.3266
har	-11.3267
▁करीबी	-11.3267
▁बाघों	-11.3269
▁भास्कर	-11.3271
▁कद	-11.3273
ंजर	-11.3273
bo	-11.3273
▁थि	-11.3273
▁छिपा	-11.3274
दिवसीय	-11.3275
▁गोले	-11.3277
▁जिन्होने	-11.3279
इयों	-11.3284
ड़ता	-11.3285
्दी	-11.3287
▁घेरा	-11.3287
लय	-11.3288
nd	-11.3288
▁प्रासंगिक	-11.3288
इन्दिरा	-11.3289
▁प्रौढ़	-11.3289
▁फायदा	-11.3291
▁जरुरत	-11.3292
▁असंख्य	-11.3292
▁लेनिन	-11.3294
सच्चे	-11.3295
▁अग्रवाल	-11.3296
मोहन	-11.3297
▁समझे	-11.3299
▁पढ़े	-11.3299
▁घंटा	-11.3301
▁नन्द	-11.3301
▁विस्	-11.3301
mp	-11.3304
▁पहुंचाने	-11.3312
▁रेखाओं	-11.3312
▁पंप	-11.3316
थल	-11.3318
▁मीना	-11.3322
▁आंदोलनों	-11.3322
माण	-11.3322
स्त्र	-11.3324
▁उपलब्धियों	-11.3324
णि	-11.3326
▁होतीं	-11.3326
▁सेवक	-11.3328
▁लाकर	-11.3329
स्तरीय	-11.3329
▁आधिपत्य	-11.333
▁आराधना	-11.333
▁प्रशोधन	-11.3331
▁ख़ाँ	-11.3331
▁चर्चित	-11.3332
▁जवान	-11.3334
▁सवाई	-11.3338
▁मिलिक	-11.3338
▁नाटककार	-11.3339
▁सजाया	-11.3339
▁लाना	-11.3341
पर्ण	-11.3343
इं	-11.3343
▁साइन	-11.3344
षण	-11.3345
▁सैयद	-11.3345
▁मसलन	-11.3345
▁कार्यकर्ताओं	-11.3346
▁संस्कारों	-11.3348
▁ऊन	-11.3352
▁रचनाकार	-11.3354
जनित	-11.3354
▁सौदा	-11.3356
सरी	-11.3358
वरी	-11.3361
▁Ca	-11.3364
स्टोन	-11.3365
▁तेरह	-11.3369
▁सबको	-11.3372
▁आश्रित	-11.3372
▁शेक्सपियर	-11.3372
▁संगमरमर	-11.3372
▁स्थूल	-11.3372
मिर	-11.3374
िनो	-11.3375
▁महिमा	-11.3379
▁मध्यवर्ती	-11.3379
▁दानव	-11.3386
▁हीरा	-11.3386
▁गुणसूत्र	-11.3386
मार्क	-11.3388
▁It	-11.3389
सिक	-11.339
▁5000	-11.3391
▁झीलें	-11.3392
फेन	-11.3396
▁एक्ट	-11.3398
ore	-11.34
बरा	-11.3401
▁चार्ज	-11.3403
लाइट	-11.3404
Xc	-11.3406
▁’	-11.341
▁भगवान्	-11.3412
▁सांख्यिकी	-11.3414
▁अलौकिक	-11.3415
▁समलैंगिक	-11.3415
साइट	-11.3415
▁अपहरण	-11.3415
ेत	-11.3418
▁दूरदर्शन	-11.342
बलीपुर	-11.3421
▁अपूर्ण	-11.3424
▁प्रथाओं	-11.3428
रुप	-11.3428
▁कब्जे	-11.3428
टीवी	-11.3429
बाजी	-11.343
त्रिक	-11.3433
▁मिलाने	-11.3435
▁स्टाफ	-11.3437
परा	-11.3437
सामान्य	-11.3442
▁तिर	-11.3442
▁चिकन	-11.3444
चिह्न	-11.3446
▁बैर	-11.3447
▁बताए	-11.3453
▁पैकेज	-11.3455
मनमोहन	-11.3457
▁नियन्त्रण	-11.3457
▁संकीर्ण	-11.3457
▁सामुदायिक	-11.3457
▁कमज़ोर	-11.3457
▁विक्रमादित्य	-11.3457
▁2.5	-11.3459
▁प्रो॰	-11.346
▁दस्तावेज़	-11.3461
XM	-11.3463
▁एंजाइम	-11.3465
▁छाल	-11.3465
▁गाथा	-11.3465
▁लिखकर	-11.3466
▁गोआ	-11.3469
▁फाइल	-11.347
मित्र	-11.347
▁शिष्यों	-11.3473
▁बगल	-11.3474
▁प्रतियोगिताओं	-11.3476
ाकर	-11.3477
▁डायरी	-11.3477
▁राह	-11.3478
▁हज़ारों	-11.3478
▁un	-11.3479
▁Le	-11.3479
्ही	-11.348
▁आईटी	-11.348
नायक	-11.3482
ard	-11.3483
▁बलि	-11.3484
▁बदलती	-11.3484
▁गेम्स	-11.3485
▁एरिक	-11.3486
▁y	-11.3489
▁इल	-11.349
au	-11.3492
▁तत्पश्चात	-11.3495
▁इजराइल	-11.3499
▁निमित्त	-11.3499
▁वृत्ति	-11.3499
▁सामंजस्य	-11.3499
▁विधायिका	-11.3499
▁78°01′	-11.3499
que	-11.35
▁छिड़	-11.35
▁स्तुति	-11.35
▁अररिया	-11.3501
▁नदियां	-11.3501
बाड़ी	-11.3502
डेंट	-11.3502
▁बैरम	-11.3509
ड़िया	-11.351
▁मेहता	-11.3511
▁भण्डार	-11.3512
▁वस्तुएं	-11.3514
,00,000	-11.3514
ोरी	-11.3522
वाड़	-11.3524
Xb	-11.3525
Xg	-11.3526
ज़रूरी	-11.3529
योग्य	-11.3531
▁27.18	-11.3538
▁फिल	-11.354
▁अपर्याप्त	-11.3542
▁स्टालिन	-11.3542
▁लेखांकन	-11.3543
▁पिनांग	-11.3543
मौ	-11.3544
▁देसाई	-11.3544
▁पहनने	-11.3545
ंद्र	-11.3545
▁भुजा	-11.3545
▁दर्रे	-11.3546
▁27.18°	-11.3547
ल्टन	-11.3552
▁हौ	-11.3554
▁त्व	-11.356
▁रहमान	-11.3564
ेण	-11.3565
विस	-11.3566
वाया	-11.3568
स्ती	-11.3573
▁सोल	-11.3574
▁ओस	-11.3579
▁मीमांसा	-11.3579
:00	-11.358
▁78.02	-11.3581
▁निष्	-11.3581
▁भैरव	-11.3582
▁प्रयोक्ता	-11.3582
▁कृतियाँ	-11.3582
▁कंक्रीट	-11.3585
▁आज़ादी	-11.3585
लम्ब	-11.3586
▁मिथिला	-11.3587
▁Me	-11.3587
▁78.02°	-11.359
▁वोल्टता	-11.3593
▁अधिकांशतः	-11.3598
▁इलेक्ट्रॉनिक्स	-11.36
▁मेगा	-11.3601
▁अस्त	-11.3605
▁इट	-11.3607
▁बाइ	-11.3607
ंतर	-11.3613
▁किताबों	-11.3618
.2	-11.362
ायी	-11.3622
▁9.	-11.3625
▁ची	-11.3625
▁विक्रय	-11.3627
▁न्यूकैसल	-11.3628
▁Duke	-11.3628
▁उल्लिखित	-11.3628
▁ज़माने	-11.3629
▁गृहयुद्ध	-11.3629
▁धमकी	-11.3629
सीर	-11.3631
कांत	-11.3633
▁मतों	-11.3635
▁नमी	-11.3637
बारी	-11.3638
▁अष्ट	-11.3638
िच	-11.3641
▁कमजोरी	-11.3641
▁महत्	-11.3644
ke	-11.3645
▁प्रे	-11.3645
▁चाह	-11.3646
हिन्दी	-11.3647
ated	-11.3647
ुत	-11.3653
▁सहस्र	-11.3654
फिन	-11.3654
▁एनी	-11.3656
घात	-11.3656
▁यन्त्र	-11.3656
▁अर्थशास्त्री	-11.3657
ous	-11.3658
▁देरी	-11.366
▁गोरखा	-11.3661
▁रियासतों	-11.3662
▁संप्रभु	-11.3663
दृ	-11.3665
िएट	-11.367
▁अन्तरिक्ष	-11.3671
▁आस्ट्रेलिया	-11.3671
▁रूढ़िवादी	-11.3672
▁फ्रांसिस्को	-11.3672
▁कालीकट	-11.3672
▁भूवैज्ञानिक	-11.3673
मूल्य	-11.3673
▁प्रसव	-11.3674
▁वयस्कों	-11.3678
▁त्र	-11.3683
माइ	-11.3686
▁भूविज्ञान	-11.3692
ैत	-11.3692
▁नौका	-11.3692
▁साइकिल	-11.3695
▁हड़ताल	-11.3696
विहीन	-11.3697
▁काँच	-11.371
▁पुष्ट	-11.3711
▁दोस्तों	-11.3714
▁विशिष्टता	-11.3715
▁Prince	-11.3715
▁गारंटी	-11.3715
▁टुकड़ों	-11.3715
XH	-11.3716
▁कठोरता	-11.3716
▁सलेम	-11.3716
▁भीमराव	-11.3716
▁सांख्यिकीय	-11.3718
ear	-11.3725
▁पिघल	-11.3728
▁कोरियाई	-11.373
ग्ग	-11.3737
▁सूखी	-11.3737
इम	-11.3737
int	-11.3749
▁विवादित	-11.375
▁वासुदेव	-11.375
ैक्स	-11.3752
▁नागर	-11.3754
▁Po	-11.3754
▁मजदूरों	-11.3756
▁राजनय	-11.3756
▁डैविलों	-11.3758
▁बजा	-11.3758
▁ब्रिगेड	-11.3758
खे	-11.3759
▁कोयंबतूर	-11.3759
▁उपलब्धता	-11.3759
ोज़	-11.3759
son	-11.3759
▁वाल्मीकि	-11.3759
▁पीढ़ियों	-11.376
▁केंद्रों	-11.3763
विचार	-11.3766
▁अंटार्कटिक	-11.3769
▁रिपब्लिकन	-11.377
▁खाया	-11.3771
कोल	-11.3771
स्ट्रेट	-11.3772
▁चलन	-11.3772
▁लीटर	-11.3773
▁नकल	-11.3773
▁निरपेक्ष	-11.3774
कल्प	-11.3776
ैं	-11.378
प्रे	-11.378
Xy	-11.3782
▁समर्थित	-11.3783
▁मज	-11.3784
ep	-11.3786
▁कडप	-11.3786
▁छेड़	-11.3791
▁अनूठ	-11.3792
{\	-11.3792
मणि	-11.3796
▁डालता	-11.3797
▁US	-11.3797
्के	-11.3798
▁ढाँचे	-11.3802
▁प्रसंस्करण	-11.3803
▁आश्चर्यजनक	-11.3803
▁वाक्यांश	-11.3803
XK	-11.3803
▁अभियानों	-11.3804
निधि	-11.3805
▁स्विच	-11.3805
ऑन	-11.3806
ाप	-11.3809
▁पहुंची	-11.3813
▁दिख	-11.3815
▁III	-11.382
▁घी	-11.3821
▁क्वीन	-11.3822
▁एक्सरे	-11.3822
▁दिलचस्पी	-11.3825
▁प्रि	-11.3826
▁ग्रि	-11.3829
▁लौ	-11.3831
▁कोर्स	-11.3836
▁हिस्	-11.384
▁लॉजिक	-11.384
oc	-11.3842
▁स्टर्लिंग	-11.3847
▁दामोदर	-11.3847
▁ज्यामिति	-11.3847
▁पहुँचाने	-11.3847
▁अवशिष्ट	-11.3847
▁कस्बे	-11.3847
▁घोड़ा	-11.3847
कृष्ट	-11.3847
▁पशुपालन	-11.3847
▁विलक्षण	-11.3848
▁एंग्लो	-11.3849
▁मूर्तियाँ	-11.3851
sp	-11.3852
▁साझेदारी	-11.3854
▁गुफाओं	-11.3855
▁बहाव	-11.3858
▁घाव	-11.3859
▁कॉम	-11.3862
्सी	-11.3863
▁अजय	-11.3866
ायत	-11.3867
▁बहा	-11.3868
▁झुक	-11.3872
▁67	-11.3872
▁लाइ	-11.3878
▁थाई	-11.3885
▁बीत	-11.3888
▁गिलगित	-11.3891
▁अद्यतन	-11.3891
▁इण्डोनेशिया	-11.3891
▁एलिजाबेथ	-11.3891
▁गुम्बद	-11.3891
▁प्राध्यापक	-11.3891
▁फाँसी	-11.3891
▁निचली	-11.3891
▁शारदा	-11.3891
▁हेक्टेयर	-11.3891
▁बाला	-11.3892
▁अग्रसर	-11.3894
्रे	-11.3895
फेर	-11.3895
▁थो	-11.3896
▁all	-11.3896
▁कब्ज़ा	-11.3898
▁करण	-11.3899
▁बिर	-11.39
▁फ़ैल	-11.39
हाई	-11.3908
▁his	-11.3908
▁बेंगलुरु	-11.391
▁तम	-11.3913
▁बेल्ट	-11.3914
▁पारिस्थितिक	-11.3922
min	-11.3924
क्ति	-11.3927
der	-11.3932
▁ऑस्ट्रिया	-11.3932
▁वादा	-11.3933
▁न्यायपालिका	-11.3935
▁आउटपुट	-11.3935
▁परिदृश्य	-11.3936
▁वोल्टेज	-11.3936
▁करवाने	-11.3936
▁गिने	-11.3939
▁फलत	-11.3943
ीम	-11.3946
गड	-11.3947
▁रखें	-11.3949
▁घटनाएं	-11.3949
▁गवाह	-11.395
,500	-11.3952
▁रूट	-11.3954
▁नियामक	-11.3954
▁नार	-11.3955
▁घना	-11.3955
▁अवधी	-11.3957
XS	-11.3957
▁वाटर	-11.3963
कालिक	-11.3964
ah	-11.3965
▁वहन	-11.3966
▁अर्ल	-11.3968
▁मातृ	-11.397
जुल	-11.397
▁गीतकार	-11.3972
▁वैन	-11.3972
भाई	-11.3972
-16	-11.3972
सीमा	-11.3974
ेटिक	-11.3975
▁टॉप	-11.3975
▁टिन	-11.3976
हद	-11.3976
▁क्रा	-11.398
▁बहिष्कार	-11.398
▁म्यूज़िक	-11.398
▁स्पर्धा	-11.398
▁गर्भाशय	-11.398
▁चमड़े	-11.398
▁अंतर्निहित	-11.398
▁तिरुपति	-11.398
▁आखिरकार	-11.3981
▁1913	-11.3983
▁पुनर्गठन	-11.3984
▁मानसिंह	-11.3988
वाहक	-11.399
▁26.	-11.399
▁राज्	-11.3991
▁its	-11.3991
▁समारोहों	-11.3996
़ी	-11.4002
▁प्रतिक्रियाओं	-11.4003
ॉक	-11.4004
▁बुल	-11.4004
सैट	-11.4006
▁फैलाव	-11.4008
िकाएँ	-11.4011
▁माइक	-11.4013
ैट	-11.4017
ँच	-11.4018
▁ताड़	-11.4019
▁खनिजों	-11.402
▁पराशर	-11.402
▁एंटीबायोटिक	-11.4025
▁प्रायोगिक	-11.4025
▁चैंपियनशिप	-11.4025
संबंध	-11.4025
▁सुनवाई	-11.4025
▁थाईलैंड	-11.4025
▁एकांकी	-11.4025
▁फ्लैश	-11.4026
▁पीएच	-11.4026
▁सलीम	-11.4027
मानी	-11.4027
▁तथाकथित	-11.4028
जातीय	-11.4029
च्य	-11.4029
▁रोहित	-11.4032
▁सामंत	-11.4036
▁उदाहरणों	-11.4037
दाता	-11.4037
पात्र	-11.4039
able	-11.404
▁अपराधों	-11.404
▁पुकारा	-11.4041
िं	-11.4043
सौ	-11.4045
▁हटाकर	-11.4045
िष	-11.4046
वर्तन	-11.4051
Xz	-11.4052
▁नें	-11.4059
मिति	-11.406
▁उपनिवेशों	-11.4064
विश्वव्यापी	-11.4065
त्ती	-11.4069
ब्रिटिश	-11.4069
▁नज़दीक	-11.407
▁रवांडा	-11.407
▁रेस्तरां	-11.407
▁शंघाई	-11.407
▁भुवनेश्वर	-11.4071
▁फीचर	-11.4071
▁संबन्ध	-11.4071
▁अनुभवी	-11.4072
राइट	-11.4072
▁भैंस	-11.4072
▁शिरा	-11.4073
▁आपातकाल	-11.4073
ाईट	-11.4074
▁एलिस	-11.4075
▁विशेषाधिकार	-11.4075
य्या	-11.4079
vo	-11.408
▁कलम	-11.408
▁पत्ती	-11.408
▁साम्यवाद	-11.408
▁सन्देश	-11.4083
कर्ण	-11.4094
▁बाह	-11.4095
लेखन	-11.4098
▁नु	-11.4099
ाज	-11.4101
-8	-11.4103
उन	-11.4105
म्बे	-11.4108
▁जोड़ों	-11.4108
संघ	-11.4109
बाग	-11.4109
▁सम्पादक	-11.411
▁अल्जीरिया	-11.4115
▁तिरुवनंतपुरम	-11.4115
▁मुद्रित	-11.4115
▁इलाक़ा	-11.4115
▁जिक्र	-11.4116
▁पोर्टलैंड	-11.4117
बुक	-11.4119
▁लांच	-11.412
▁पित्त	-11.412
▁विधियाँ	-11.4123
▁प्रतिफल	-11.4123
▁शान	-11.4124
▁their	-11.4125
▁परेशानी	-11.4127
क्रि	-11.4129
▁ध्	-11.4132
ect	-11.4134
मूर्ति	-11.4134
▁समझाने	-11.4135
्नो	-11.4136
▁मतदाता	-11.4138
रियन	-11.4146
▁09	-11.4149
▁आसवन	-11.4152
▁टूर	-11.4153
▁गल	-11.4154
▁गौड़	-11.4158
▁टोल	-11.4158
▁अभियान्त्रिकी	-11.416
▁गोदावरी	-11.416
▁पैतृक	-11.416
▁ध्येय	-11.416
▁चार्वाक	-11.416
▁एकजुट	-11.4161
▁टक्कर	-11.4161
▁कपड़ों	-11.4162
यूरोपीय	-11.4164
▁चीड़	-11.4164
▁---	-11.4166
न्दा	-11.4169
▁10.	-11.4172
▁गला	-11.4173
▁सुविधाएँ	-11.4174
▁स्पेनी	-11.4177
▁फ़र्रूख़ाबाद	-11.4177
▁सावधानी	-11.4177
▁किंग्स	-11.4179
▁पहुँचती	-11.418
▁सराय	-11.4183
▁Sa	-11.4193
ावर	-11.4193
▁जीनोम	-11.4197
▁वॉ	-11.4197
-11	-11.4198
ौन	-11.4199
▁1901	-11.42
▁न्यूयार्क	-11.4206
▁बहरहाल	-11.4206
▁हड्डियों	-11.4206
▁हेपेटाइटिस	-11.4206
▁हार्डवेयर	-11.4206
▁कैलाश	-11.4206
▁युवावस्था	-11.4206
▁स्क्वायर	-11.4207
▁बहुमूल्य	-11.4207
जन्म	-11.4207
पोषण	-11.4208
▁टकराव	-11.4209
▁चिन	-11.421
▁विमर्श	-11.4213
ढा	-11.4215
▁सलाम	-11.4219
▁सल	-11.4226
▁मणिपुर	-11.4229
▁जानकी	-11.4236
▁नरसिंह	-11.4248
▁61	-11.4248
▁अद्वैत	-11.4252
▁खुफिया	-11.4252
▁जिंदगी	-11.4252
▁पिरामिड	-11.4252
▁अपमान	-11.4252
▁फांसी	-11.4252
▁साय	-11.4253
▁भरोसा	-11.4253
▁डेढ़	-11.4254
ीनो	-11.4257
Xt	-11.4258
▁मध्यकाल	-11.4263
▁वृद्ध	-11.4264
ुओं	-11.4268
▁टेक्नोलॉजी	-11.4268
fe	-11.4269
बर्म	-11.4269
योजन	-11.4269
▁180	-11.4277
▁बंग	-11.4278
माता	-11.4279
▁औषध	-11.4281
▁गोर	-11.4284
▁उगा	-11.4284
▁सेठ	-11.4287
डिंग	-11.4287
▁आरोपों	-11.429
▁Sh	-11.4291
गें	-11.4293
▁व्या	-11.4293
art	-11.4294
ure	-11.4294
वाणी	-11.4296
frac	-11.4298
▁जेरिको	-11.4298
▁मोरक्को	-11.4298
▁कैमरून	-11.4298
▁ताजिकिस्तान	-11.4298
▁प्रजातियाँ	-11.43
▁पतले	-11.43
▁मल्टी	-11.43
टेर	-11.43
▁वॉर	-11.43
▁जायेंगे	-11.4301
▁1909	-11.4301
ड्रो	-11.4309
wa	-11.431
भव	-11.4313
▁दाह	-11.4314
ोनी	-11.4314
▁व्यवसायों	-11.4315
▁युवाओं	-11.432
▁मिलना	-11.4323
जाल	-11.4323
▁en	-11.4325
rt	-11.4325
कॉन	-11.4325
▁महीन	-11.4326
चर्च	-11.4328
▁स्वेच्छा	-11.433
▁टकरा	-11.433
the	-11.4331
परिवर्तन	-11.4331
▁लाये	-11.4332
वस	-11.4334
▁दुर्	-11.4337
माने	-11.4337
वर्ड	-11.4338
▁De	-11.434
िको	-11.4344
▁कॉर्पोरेशन	-11.4344
▁पूर्वानुमान	-11.4344
▁ईद	-11.4345
▁कांस्य	-11.4345
▁क्रांतिकारियों	-11.4345
्मी	-11.4346
▁शुक्रवार	-11.4346
▁चैत्र	-11.4347
▁सूक्त	-11.4347
▁राइफल्स	-11.435
▁सूत	-11.435
▁झंडा	-11.4351
ie	-11.4353
▁कुमारी	-11.4358
▁अस्थिर	-11.436
▁जार्ज	-11.436
▁समझाया	-11.4363
▁वसूल	-11.4363
▁प्रतिरोधक	-11.437
▁क्षीण	-11.4371
▁आभास	-11.4372
▁पच	-11.4373
▁चेर	-11.4373
पुरम	-11.4376
▁आंक	-11.4377
▁अपार	-11.4378
▁प्रचारक	-11.438
▁फ़े	-11.438
स्ट्रो	-11.4381
▁समांतर	-11.4382
▁सिल्	-11.4382
▁मंगली	-11.4382
वेग	-11.4382
मीमांसा	-11.4388
ll	-11.439
▁पनडुब्बी	-11.4391
▁सम्पादन	-11.4391
▁अत्याधिक	-11.4391
▁हंडिया	-11.4391
▁लिनक्स	-11.4392
▁नादिर	-11.4392
▁लेडी	-11.4392
▁चालीस	-11.4392
▁संवर्धन	-11.4393
▁पढाई	-11.4393
▁सम्बंध	-11.44
▁मिमी	-11.4401
ाचार	-11.4406
▁कविताएँ	-11.4407
दुर	-11.4407
▁सालाना	-11.4407
▁दृढ़ता	-11.4411
▁टैक्सी	-11.4415
▁ग्रेड	-11.4415
si	-11.4417
▁जोन्स	-11.4417
▁पड	-11.4418
गू	-11.4419
▁खाई	-11.4421
▁रूम	-11.4423
फ़र	-11.4424
▁संज्ञानात्मक	-11.4427
सम्मत	-11.4428
▁पॉलि	-11.4437
▁क़रीब	-11.4438
▁अमिताभ	-11.4438
▁मृदा	-11.4438
▁अंदरूनी	-11.4438
▁अभिनीत	-11.4438
▁छन्द	-11.4438
▁only	-11.444
▁पार्टियों	-11.444
▁झंडे	-11.444
▁वाइस	-11.4441
▁आतंक	-11.4442
विया	-11.4442
लिखित	-11.4442
फ्रे	-11.4443
▁दर्रा	-11.4444
टक	-11.445
▁पहचानने	-11.445
ंश	-11.4451
दर्शी	-11.4454
▁बिट	-11.4456
▁रबर	-11.4458
सै	-11.4459
▁ताजा	-11.4462
▁देनी	-11.4463
केन	-11.4465
ty	-11.4471
XW	-11.4474
▁परिपक्व	-11.4475
▁रोमानिया	-11.448
▁उस्मानी	-11.448
▁नमूनों	-11.4485
▁जाम्बिया	-11.4485
▁दीमापुर	-11.4485
▁साबुन	-11.4485
▁अरस्तू	-11.4485
▁मोनोरेल	-11.4485
▁मापदंड	-11.4485
▁सिकुड़	-11.4485
▁लड़ाकू	-11.4485
▁बढ़े	-11.4487
▁धोनी	-11.449
ासन	-11.4492
▁दारा	-11.4492
▁उपनिषद्	-11.4493
खेड़ा	-11.4494
▁जानेवाली	-11.4494
निंग	-11.4497
▁बंदर	-11.4497
क़ी	-11.4498
▁जोड़ती	-11.4498
▁ब्लॉग	-11.4499
नाग	-11.4499
▁तिरु	-11.4501
बोल	-11.4503
▁हेर	-11.4504
▁डायना	-11.4504
▁घर्षण	-11.4504
आयामी	-11.4506
▁ग्र	-11.451
▁कल्चर	-11.451
▁टॉ	-11.4512
डों	-11.4512
XL	-11.4524
गोन	-11.4524
▁ज़े	-11.4527
▁ढांचा	-11.4532
▁लीबिया	-11.4532
▁रिश्ता	-11.4532
▁इरादा	-11.4532
▁92	-11.4534
▁प्रेक्षण	-11.4534
▁कपिल	-11.4535
▁जनजातियों	-11.4536
ग्राही	-11.4539
बोर्न	-11.454
▁हल्की	-11.4541
▁डालर	-11.4541
▁वू	-11.4541
▁किताबें	-11.4542
▁अरुण	-11.4543
▁आभूषण	-11.4548
▁साधारणत	-11.4548
▁डाउन	-11.4548
▁मौसमी	-11.4549
▁सितारों	-11.455
शंस	-11.455
▁त्रिपुरा	-11.4551
▁रचनाकाल	-11.4552
bu	-11.4553
▁दलितों	-11.4553
▁कर्तव्यों	-11.4555
रियों	-11.4556
XJ	-11.4567
ुल्लाह	-11.4569
▁रिकॉर्ड्स	-11.4571
▁कार्यालयों	-11.4572
Xu	-11.4573
▁पाइ	-11.4577
▁350	-11.4578
▁पूंछ	-11.4579
▁स्टीफन	-11.4579
▁हड़प्पा	-11.4579
▁नंदी	-11.4579
▁स्वीकार्य	-11.4579
▁मार्क्स	-11.458
▁भाषाविज्ञान	-11.458
▁वायुयान	-11.4582
ांस	-11.4587
▁सूट	-11.4589
▁विचारकों	-11.459
लंब	-11.459
हॉल	-11.4592
▁डोर	-11.4595
▁सकेगा	-11.46
मात्र	-11.46
▁लोह	-11.4602
▁मुख्	-11.4604
हरे	-11.4608
▁सैल	-11.461
▁सैक	-11.4613
वु	-11.4617
▁सफर	-11.4623
▁ग्लेशियर	-11.4627
▁मेगावाट	-11.4627
▁विनोबा	-11.4627
▁स्टैनफोर्ड	-11.4627
▁ऑडियो	-11.4627
▁वेल्श	-11.4628
ाला	-11.4629
▁मुजफ्फरपुर	-11.4629
▁दर्जन	-11.4629
▁टेली	-11.4633
▁बाज	-11.4634
▁विशेषताएं	-11.4635
ड़ो	-11.4636
▁लाइफ	-11.4636
▁गामा	-11.4637
लिट	-11.4638
▁उठता	-11.4639
▁उग	-11.464
▁साठ	-11.4641
▁बुद्धिमान	-11.4643
▁मारी	-11.4646
▁निज़ाम	-11.4647
▁वादी	-11.4648
ee	-11.4651
▁गाइड	-11.4651
्जे	-11.4654
बड़ी	-11.4654
▁रोह	-11.4655
फिर	-11.4657
▁पडा	-11.4658
क्ले	-11.4658
▁अपूर्व	-11.4659
▁Mar	-11.466
▁पटल	-11.4663
नम	-11.4664
▁भित्ति	-11.4668
ायक	-11.467
XG	-11.4671
काण्ड	-11.4671
▁ग्रीष्म	-11.4673
▁एजेंसियों	-11.4675
▁खजुराहो	-11.4675
▁हावड़ा	-11.4675
▁प्रेसीडेंसी	-11.4675
▁बिशप	-11.4675
▁कहानियां	-11.4675
▁भूकम्प	-11.4675
▁मदीना	-11.4675
▁समता	-11.4675
▁शोथ	-11.4677
▁नोकिया	-11.4679
▁दिखाते	-11.4681
▁राजकोट	-11.4682
▁साधक	-11.4682
▁Be	-11.4683
▁प्रवृत्तियों	-11.4683
ंजी	-11.4685
▁जीवंत	-11.4685
▁शीश	-11.4686
▁गान	-11.4686
▁पीर	-11.4688
▁बुरे	-11.4689
शोथ	-11.4689
▁पदार्थो	-11.4692
▁मित्रों	-11.4692
▁दाहिने	-11.4693
▁लिपियों	-11.4694
स्टे	-11.4695
▁हीमोग्लोबिन	-11.4697
▁कार्बोहाइड्रेट	-11.47
▁CO	-11.4701
▁आरती	-11.4705
▁%	-11.4705
▁10%	-11.4705
ॉट	-11.4707
▁कर्मों	-11.4708
ens	-11.4709
▁दिक्	-11.4713
बीज	-11.4717
▁बॉ	-11.4718
▁उत्कीर्ण	-11.4723
▁काँग्रेस	-11.4723
▁गिटार	-11.4723
▁ग़लत	-11.4723
▁शंख	-11.4723
XT	-11.4724
▁जयप्रकाश	-11.4724
़ा	-11.4724
▁खण्डों	-11.4724
▁राजपूतों	-11.4725
▁मोटा	-11.4726
▁प्रतिबिंबित	-11.4728
▁महाद्वीपों	-11.4728
▁किरणें	-11.4729
▁प्रशासक	-11.4731
विद्युत	-11.4732
▁संवेदना	-11.4732
▁ब्राह्मी	-11.4732
मति	-11.4733
▁pro	-11.4735
▁आपत्ति	-11.4735
▁कार्यात्मक	-11.4737
▁कथाएँ	-11.4738
▁यूरेनियम	-11.4738
▁वर्क	-11.4739
▁डालकर	-11.4743
वर्	-11.4743
▁घाटियों	-11.4745
▁क्वा	-11.4746
ist	-11.4749
▁प्रबन्धन	-11.4752
▁हिंदुस्तानी	-11.4752
▁मस्त	-11.4754
▁नेटवर्किंग	-11.4755
▁जरा	-11.4757
▁लिखीं	-11.4757
▁महामारी	-11.476
▁आगम	-11.4761
▁La	-11.4762
pe	-11.4764
ड़ियों	-11.4764
▁संतुष्ट	-11.4767
▁श्रद्धालु	-11.4768
▁युधिष्ठिर	-11.4771
▁श्रद्धांजलि	-11.4771
▁स्वीडिश	-11.4771
ुए	-11.4771
▁निरन्तर	-11.4771
▁चन्द्रशेखर	-11.4771
▁जीववैज्ञानिक	-11.4773
▁गाड़ियों	-11.4773
पाट	-11.4773
▁भालू	-11.4773
मानस	-11.4776
▁संचय	-11.4777
भावना	-11.4778
▁सभापति	-11.4781
▁विकारों	-11.4781
▁सर्दी	-11.4782
ूत	-11.4782
पृष्ठ	-11.4783
शिक्षा	-11.4786
▁नंदा	-11.4787
▁शिविर	-11.4788
▁सील	-11.4789
▁गाँवों	-11.4789
्फ़	-11.479
▁सिया	-11.479
▁रहेगी	-11.479
▁सल्फेट	-11.479
बंदी	-11.4794
gen	-11.4801
▁नायिका	-11.4802
▁11.	-11.4803
▁चांद	-11.4804
▁परमार	-11.4806
कान	-11.4813
▁एयरलाइन	-11.4814
100	-11.4816
▁कॉमिक	-11.4819
▁ज्	-11.4819
▁इज़राइल	-11.482
▁लखीसराय	-11.482
▁अलाउद्दीन	-11.482
▁रिज़र्व	-11.482
▁ब्रह्मपुत्र	-11.4821
▁but	-11.4821
▁घाना	-11.4822
▁अन्ततः	-11.4822
▁दिखती	-11.4823
▁कार्यान्वित	-11.4823
▁मौके	-11.4827
समाज	-11.4827
▁प्रत्यक्षीकरण	-11.4827
स्टार	-11.4828
िफ	-11.4828
-17	-11.4828
▁दरार	-11.4828
प्राप्ति	-11.4829
ip	-11.483
वानी	-11.4832
▁भ्रष्ट	-11.4832
▁बक	-11.4838
निन	-11.4845
▁माय	-11.4847
▁टेल	-11.4848
XN	-11.4851
▁जुड़ने	-11.4854
▁क्लिक	-11.4854
▁other	-11.4854
▁नान	-11.4855
▁मित्रता	-11.4857
▁युगल	-11.4858
जिया	-11.486
▁खे	-11.4861
▁ताम्र	-11.4863
द्व	-11.4866
▁गाजीपुर	-11.4868
▁बाधित	-11.4868
▁उत्प्रेरक	-11.4868
▁मय	-11.4868
टाइम	-11.4869
▁विराट	-11.4869
▁महमद	-11.4869
▁हमने	-11.487
▁बोतल	-11.487
फ़ि	-11.4872
▁रेलमार्ग	-11.4873
▁राजेंद्र	-11.4873
ari	-11.4874
▁शब्दकोश	-11.4874
▁दिखाए	-11.4876
▁80%	-11.4877
▁वेस्टमिंस्टर	-11.4878
-12	-11.4878
▁शक्तियाँ	-11.4881
सौर	-11.4881
▁व्युत्पत्ति	-11.4881
सलमान	-11.489
न्या	-11.489
म्बो	-11.4892
▁सांप	-11.4894
▁डबल	-11.4895
रगढ	-11.49
▁sp	-11.4903
▁धु	-11.4904
:1	-11.4904
▁कार्यो	-11.4906
▁ठंडी	-11.4909
res	-11.4912
▁विक्रेता	-11.4914
यंत्र	-11.4915
▁आह्वान	-11.4917
▁नैनोट्यूब	-11.4917
▁वर्चस्व	-11.4917
▁आख्यान	-11.4917
▁झरने	-11.4917
▁मीठे	-11.4918
▁गाव	-11.4918
▁कारागार	-11.4918
यि	-11.4918
ass	-11.4918
▁विडियो	-11.4919
▁उर्वरक	-11.4919
▁कुत्तों	-11.4919
शासन	-11.4921
▁दाने	-11.4921
▁जुडो	-11.4921
▁रूपांतरित	-11.4922
▁गुड़	-11.4922
▁जनमत	-11.4922
▁भागने	-11.4922
▁मकर	-11.4923
गुर	-11.4923
▁ओल्ड	-11.4925
▁गोला	-11.4927
▁प्रतिस्पर्धी	-11.493
स्थिति	-11.493
▁भटक	-11.4931
▁औजार	-11.4931
▁बडा	-11.4931
▁Pa	-11.4932
▁ओडिशा	-11.4934
व्रत	-11.4937
▁चाड	-11.4938
▁यूनिकोड	-11.4941
माइन	-11.4942
जनों	-11.4942
पिन	-11.4944
▁टूल	-11.4945
ेली	-11.4947
स्था	-11.4948
▁गर्व	-11.495
ua	-11.495
▁संवेदनशीलता	-11.495
▁पूर्णत	-11.4951
▁कुण्ड	-11.4952
▁होंगी	-11.4953
ंभ	-11.4956
▁पीट	-11.4957
तिक	-11.4957
▁फलक	-11.4961
▁सिकन्दर	-11.4961
वाड	-11.4962
▁द्वितीयक	-11.4963
शोर	-11.4964
ten	-11.4964
▁प्लूटो	-11.4966
▁कार्टून	-11.4966
▁अभूतपूर्व	-11.4967
▁कैलगरी	-11.4967
▁कवच	-11.4967
▁गोलार्ध	-11.4967
▁सहानुभूति	-11.4967
▁सचिवालय	-11.4967
▁more	-11.4967
▁मिलाया	-11.4969
▁मूल्यवान	-11.4969
▁व्यर्थ	-11.4969
आईएस	-11.497
▁मोटाई	-11.4972
▁जन्मदिन	-11.4975
▁कुरु	-11.4975
िर्	-11.4976
क्रा	-11.498
▁रिज	-11.4982
▁छल	-11.4987
वृत	-11.4987
▁गंधक	-11.499
▁प्रक्रियाएं	-11.4995
▁पत	-11.4997
काय	-11.4997
पालन	-11.4998
▁गंभीरता	-11.5
तीन	-11.5001
▁मानवों	-11.5004
▁समाजों	-11.5005
▁मध्ययुगी	-11.5006
धातु	-11.5007
प्रद	-11.501
रेक	-11.5011
▁बंधक	-11.5014
▁प्रधानता	-11.5015
▁इलाक़ों	-11.5016
▁कोल्हापुर	-11.5016
▁मेमोरी	-11.5016
▁घनिष्ठ	-11.5017
▁बीजों	-11.5021
ब्स	-11.5022
▁गू	-11.5023
चिकित्सा	-11.5023
ाज़	-11.5027
▁हटाया	-11.5029
▁लेह	-11.5029
▁ठंडे	-11.503
▁मनाते	-11.5031
mb	-11.5034
▁करी	-11.5037
▁वोडका	-11.5038
▁अब्द	-11.5039
ंदर	-11.504
ide	-11.5044
▁मैट	-11.5045
▁per	-11.5045
▁मेक	-11.5047
▁नानक	-11.5048
▁साध	-11.5048
गाम	-11.5054
▁अस्	-11.5055
झी	-11.5055
▁सप्तम	-11.5057
नस	-11.5061
तन्त्र	-11.5062
नेत्र	-11.5063
▁we	-11.5063
भोज	-11.5066
▁अनावश्यक	-11.5066
▁द्योतक	-11.5066
▁पाणिनि	-11.5066
▁अनुपालन	-11.5067
▁प्लांट	-11.5067
▁विशालकाय	-11.5067
▁कबाब	-11.5068
▁do	-11.5069
▁Si	-11.507
▁परतों	-11.5073
▁सिद्धि	-11.5074
▁आर्द्रता	-11.5075
▁लैस	-11.5077
▁लेक	-11.5077
मुद	-11.5079
▁दाम	-11.508
▁दिखाता	-11.5083
कहीं	-11.5084
▁निकालकर	-11.5086
ावा	-11.5086
▁हॉट	-11.5091
ach	-11.5093
-18	-11.5093
▁आईपी	-11.5098
▁गुजरत	-11.5101
▁ऋ	-11.511
The	-11.5112
▁जनसँख्या	-11.5116
▁बैठकर	-11.5116
▁विजुअल	-11.5116
▁समर्पण	-11.5116
▁टायर	-11.512
घट	-11.512
▁प्रक्रम	-11.5121
▁पड़ेगा	-11.5122
▁तत्	-11.5122
▁सामान्यतया	-11.5124
▁उठी	-11.5125
▁सिवाय	-11.5125
▁अनेकाने	-11.5125
▁अथ	-11.5128
▁सिल	-11.513
ॉर	-11.5133
▁कांड	-11.5137
▁गोंड	-11.5137
▁कीर्ति	-11.5138
देन	-11.514
300	-11.5142
हाउस	-11.5143
▁कमाल	-11.5143
▁प्राप्तकर्ता	-11.5144
लाम	-11.5144
▁मायन	-11.5144
ुरा	-11.515
▁अपर	-11.5153
▁क्लो	-11.5153
शिक	-11.5155
स्का	-11.5156
▁शिक्षकों	-11.5157
राह	-11.5159
▁25.	-11.5165
▁बागडोगरा	-11.5166
▁मेघालय	-11.5166
▁गर्भगृह	-11.5167
▁रेड्डी	-11.5167
▁गार्ड	-11.5169
▁पांड्य	-11.517
ology	-11.5172
▁मानद	-11.5173
भूषण	-11.518
▁प्रशंसक	-11.5181
▁मिलेगा	-11.5181
वंशी	-11.5186
स्मिथ	-11.5189
ज्ञा	-11.5189
▁लिप	-11.5189
ात्मा	-11.519
आकृति	-11.5191
हिल	-11.5191
▁उभार	-11.5196
▁डीवी	-11.5197
▁उपनिवेशवाद	-11.5198
▁यथार्थवादी	-11.5199
र्ल	-11.5202
▁कोटा	-11.5205
▁थकान	-11.5206
▁खंडन	-11.5207
’’	-11.521
▁न्यूरो	-11.5211
▁अहिल्या	-11.5217
▁सब्जी	-11.5217
▁फ़ौज	-11.5217
▁बिल्डिंग	-11.5217
▁प्रायोजित	-11.5217
▁रानीखेत	-11.5217
▁वेगास	-11.5218
▁पूरब	-11.5219
▁स्पोर्ट्स	-11.5221
▁जागरूकता	-11.5222
नामा	-11.5223
▁कॉमिक्स	-11.5224
▁सस्ता	-11.5224
फूल	-11.5227
▁श्रुति	-11.5227
▁मौजूदगी	-11.5229
▁समझता	-11.5231
▁प्रयोजनों	-11.5233
▁सुधारने	-11.5236
▁आव	-11.5236
▁यूक्रेन	-11.5236
▁कंपन	-11.5238
▁उठे	-11.5239
▁1800	-11.5239
▁अभिनेताओं	-11.5243
▁करनेवाली	-11.5249
भद्र	-11.525
▁रेन	-11.525
सत्य	-11.5252
▁जॉ	-11.5253
▁दरिया	-11.5254
▁पंद्रह	-11.5256
▁अध्यात्म	-11.5256
▁वेल	-11.526
▁स्वरों	-11.5261
▁लता	-11.5264
▁योगी	-11.5265
▁एयरलाइंस	-11.5267
▁एहसास	-11.5267
▁कैथरीन	-11.5267
▁गुंबद	-11.5267
▁समस्थानिक	-11.5267
▁ऐल	-11.5267
▁तरंगदैर्घ्य	-11.5267
▁खलनायक	-11.5267
▁मोर्चा	-11.5268
जिंग	-11.5268
▁कल्कि	-11.5268
रंजन	-11.5268
▁विस्थापित	-11.5269
▁चौड़े	-11.5269
▁बरत	-11.527
▁टेबल	-11.5271
▁पतला	-11.5271
▁चित्रकारी	-11.5271
▁उड़िया	-11.5273
गेन	-11.5274
▁तटस्थ	-11.5274
▁एवम	-11.5276
निर्देश	-11.5276
ेन्स	-11.5276
Xl	-11.5281
▁यों	-11.5282
▁बीजिंग	-11.5284
▁हिन्दुस्तानी	-11.5292
▁पहुँचते	-11.5293
▁राख	-11.5295
▁मस्जिदों	-11.5295
▁लुईस	-11.5295
▁लटका	-11.5298
▁गुदा	-11.5303
आइ	-11.5305
▁नागरी	-11.531
▁नकली	-11.5311
▁कफ	-11.5313
ूद	-11.5316
▁इंजेक्शन	-11.5318
▁नाइजीरिया	-11.5318
▁रिएक्टर	-11.5318
▁वडोदरा	-11.5318
▁वापिस	-11.5318
▁वैवाहिक	-11.5318
▁पसन्द	-11.5319
▁गौण	-11.5319
▁मैत्री	-11.5319
्फ	-11.5322
▁छपाई	-11.5322
▁प्रतिबन्ध	-11.5322
सत	-11.5322
इड	-11.5323
▁सर्जन	-11.5324
िकरण	-11.5325
▁मैथिली	-11.5325
▁प्लेयर	-11.533
▁नारा	-11.533
वंत	-11.533
Xh	-11.5332
▁शॉ	-11.5336
▁उभरी	-11.5336
▁प्रतिस्थापन	-11.5338
▁सजावट	-11.5338
?"	-11.5339
▁यजुर्वेद	-11.5339
▁110	-11.5339
▁विशेषत	-11.5339
नबर्ग	-11.5342
▁सभ्यताओं	-11.5344
▁अंडों	-11.5344
सिर	-11.5347
ित्र	-11.5348
ence	-11.5349
्लर	-11.535
▁125	-11.5354
गि	-11.5356
देशीय	-11.5357
उर	-11.5357
▁शाहजहाँ	-11.5365
▁ब्रो	-11.5367
दश	-11.5368
▁चोपड़ा	-11.537
▁जिब्राल्टर	-11.537
▁पुतिन	-11.537
▁मुद्रास्फीति	-11.537
▁फीसदी	-11.537
▁कीचड़	-11.537
▁टोपी	-11.5373
▁गाल	-11.5374
▁नियोजन	-11.5377
▁निम	-11.5378
▁शिशुओं	-11.5382
▁गिरती	-11.5385
▁हिंदुस्तान	-11.539
्प	-11.539
ग्ल	-11.5393
केल	-11.5393
▁क्रियाएँ	-11.5394
XD	-11.5395
फुल	-11.5395
XP	-11.5396
org	-11.5404
िंस	-11.5404
▁फास्ट	-11.5405
▁राष्ट्रीयता	-11.5406
ाउ	-11.5406
▁बेस्ट	-11.5407
ाधि	-11.5408
▁परिणत	-11.5411
रोन	-11.5416
tan	-11.5417
ey	-11.5417
tt	-11.5421
▁बरतन	-11.5421
▁आतंरिक	-11.5421
▁नेटस्केप	-11.5421
▁राइट	-11.5421
▁पत्तियाँ	-11.5422
▁क्रिसमस	-11.5422
▁ISO	-11.5422
▁वेदान्त	-11.5423
▁मात	-11.5425
▁दिखते	-11.5425
▁सूर	-11.5426
▁पम्प	-11.5427
कोण	-11.5429
▁पन	-11.5429
▁कोशिकाएँ	-11.5433
▁इज़	-11.5434
▁वक्ता	-11.5439
लान	-11.5439
ंटा	-11.5442
डेड	-11.5442
्सर	-11.5443
▁अभिगम	-11.5443
ष्ण	-11.5444
▁नाराज	-11.5445
प्राचीन	-11.5448
स्रोत	-11.5448
▁हवाओं	-11.5451
न्ग	-11.5452
▁चिकित्सकों	-11.5452
▁अध्यायों	-11.5453
▁मस	-11.5456
्मय	-11.5457
▁जानना	-11.546
▁निकासी	-11.5463
▁कुं	-11.5464
निर्	-11.5464
फ्ल	-11.5465
-7	-11.5466
▁12.	-11.5468
▁आलम	-11.547
▁चलाते	-11.5471
▁मुझ	-11.5471
▁असंतोष	-11.5473
▁यमकेश्वर	-11.5473
▁डिवाइस	-11.5473
▁बस्तियों	-11.5473
▁सिडनी	-11.5473
▁वास्तुशिल्प	-11.5473
▁अनावरण	-11.5474
▁घृणा	-11.5474
▁फिनलैंड	-11.5474
▁न्यूट्रॉन	-11.5474
▁सुविधाजनक	-11.5475
▁प्रौद्योगिकियों	-11.5475
▁औषधीय	-11.5478
▁आरम्भिक	-11.5481
▁भारतेन्दु	-11.5482
▁दहन	-11.5483
▁वैधानिक	-11.5484
up	-11.5485
▁जोड़ते	-11.5491
▁चैनलों	-11.5491
rd	-11.5492
▁घटनाएँ	-11.5492
ाका	-11.5498
वैदिक	-11.55
▁Gu	-11.5502
चू	-11.5502
▁130	-11.5502
फॉर्म	-11.5504
▁निर्मल	-11.5507
▁पुरोहित	-11.5507
लता	-11.5508
▁ल्यू	-11.5511
▁संतों	-11.5516
▁प्रतिबद्धता	-11.5522
▁बिजनेस	-11.5525
▁आन्तरिक	-11.5525
▁तैमूर	-11.5525
▁सराहा	-11.5525
▁160	-11.5525
▁गोंडवाना	-11.5525
▁पुनर्जागरण	-11.5525
▁फ्रेडरिक	-11.5525
▁किनारों	-11.5526
▁संयोजित	-11.5526
▁दोषों	-11.5527
▁विनय	-11.5527
ोत्सव	-11.5528
▁1870	-11.5529
▁For	-11.5529
▁घूमते	-11.553
पल्लि	-11.5532
विधान	-11.5532
▁सुनाया	-11.5532
ाधीन	-11.5533
▁विरोधियों	-11.5536
▁बकर	-11.5536
▁आसीन	-11.5538
फाई	-11.5538
▁क्षारीय	-11.5538
▁जड़ें	-11.5539
▁गतिशीलता	-11.5543
त्थ	-11.5543
▁मीरा	-11.5544
▁गायिका	-11.5545
गया	-11.5546
cu	-11.5547
tu	-11.555
▁विशेषतः	-11.5552
▁लॉक	-11.5553
▁तद	-11.5554
▁20%	-11.5554
▁पृष्ठों	-11.5554
ईस्ट	-11.5557
िशन	-11.5559
खाना	-11.556
Xf	-11.5563
▁वस्त्रों	-11.5563
ोत्	-11.5567
Xs	-11.5575
▁अफगान	-11.5577
▁माउंटबेटन	-11.5577
▁लेफ्टिनेंट	-11.5577
▁क्रियाकलाप	-11.5577
▁कॉर्नेल	-11.5578
▁संग्रहण	-11.5579
▁दूरदर्शी	-11.558
▁1890	-11.5581
▁खंडहर	-11.5581
प्य	-11.5587
▁शक्तियां	-11.5592
▁शोर	-11.5594
ॅल	-11.5594
▁निशाना	-11.5598
▁नर्तक	-11.5599
▁भद्र	-11.56
ोजी	-11.5601
▁ढोल	-11.5602
लोचन	-11.5602
▁देगी	-11.5604
▁करनाल	-11.5606
Xd	-11.5607
▁पहुँची	-11.561
▁फूलपुर	-11.5612
हेल	-11.5613
तारा	-11.5613
▁नाभि	-11.5614
मंगल	-11.5615
क्या	-11.5617
िस्	-11.5622
▁मुंडा	-11.5622
चिस	-11.5623
▁राइफल	-11.5624
लेक	-11.5624
▁दर्जे	-11.5626
पीड	-11.5629
▁आर्सेनिक	-11.563
▁बड़ौदा	-11.563
▁धब्बे	-11.563
▁कॉफ़ी	-11.5631
▁मियामी	-11.5631
▁As	-11.5636
▁सामी	-11.5641
▁अनिल	-11.5641
दुर्ग	-11.5644
ाॅ	-11.5646
▁गल्फ	-11.5646
हॉर्न	-11.5647
▁युवक	-11.5647
▁कामना	-11.5651
red	-11.5651
▁सीसा	-11.5652
▁मूलत	-11.5653
▁युग्म	-11.5657
▁प्रेरक	-11.5657
Xr	-11.5659
▁आदम	-11.5664
▁पेशे	-11.5667
ाइज़	-11.5674
▁प्लेस	-11.5675
गाह	-11.5676
हॉ	-11.5678
पं	-11.568
▁खोजा	-11.568
▁कृमि	-11.568
तीर्थ	-11.5681
न्ती	-11.5681
XA	-11.5681
▁साइटों	-11.5682
▁कैल्सियम	-11.5683
▁झारखण्ड	-11.5683
▁मुलायम	-11.5683
▁चतुर्भुज	-11.5683
▁माईस्पेस	-11.5683
▁समायोजित	-11.5683
▁कमेटी	-11.5683
▁रवाना	-11.5684
▁टैगोर	-11.5684
▁नारियल	-11.5685
▁दरगाह	-11.5685
▁आर्द्र	-11.5685
▁फॉक्स	-11.5685
▁सर्पिल	-11.5686
▁प्रखंड	-11.5688
▁0072	-11.5692
▁हज	-11.5694
▁टॉवर	-11.5697
▁दुग्ध	-11.5698
▁समितियों	-11.57
▁कक्षाओं	-11.5701
▁उठाकर	-11.5701
क्सी	-11.5701
फ़ल	-11.5701
▁महत्ता	-11.5702
▁शी	-11.5702
▁मोना	-11.5706
▁मॉडलिंग	-11.5706
▁ज्यों	-11.5706
▁चुनने	-11.5711
्ट्स	-11.5712
▁टीके	-11.5712
रसायन	-11.5712
▁बढ़ाकर	-11.5713
▁विकि	-11.5713
▁नैशनल	-11.5714
साउथ	-11.5714
▁एलि	-11.5715
▁संपदा	-11.5716
शब्द	-11.5717
▁डू	-11.5722
▁असमानता	-11.5722
▁धारक	-11.5723
▁अपराधियों	-11.5725
▁महादेवी	-11.5725
▁क्वार्क	-11.5725
▁निर्वाण	-11.5726
▁सर्ग	-11.5727
do	-11.5729
शत	-11.5729
वट	-11.5731
इश	-11.5734
कॉक	-11.5734
▁उत्तेजना	-11.5735
▁आत्मसमर्पण	-11.5736
▁प्राइवेट	-11.5736
▁हेराल्ड	-11.5736
▁सपना	-11.5736
रिचमंड	-11.5737
▁पोलिश	-11.5738
▁रामकृष्ण	-11.5741
▁विनोद	-11.5742
▁टिम	-11.5744
▁मिनी	-11.5745
▁उड़ा	-11.5747
▁टेरी	-11.5747
ana	-11.5748
▁अशुद्ध	-11.5749
▁एलन	-11.575
डियन	-11.575
ावती	-11.5752
▁विराम	-11.5754
500	-11.5756
िंग्स	-11.5756
प्रणाली	-11.5757
ब्रिक्स	-11.5761
▁कीमतों	-11.5765
▁सुधारक	-11.5771
हीनता	-11.5773
ियान	-11.5774
▁मानती	-11.5775
▁गुरुत्व	-11.5778
▁बारीक	-11.5778
▁तान	-11.5783
▁शायर	-11.5783
स्टेट	-11.5785
ैंट	-11.5785
▁He	-11.5786
शेर	-11.5786
5%	-11.5787
दिया	-11.5787
चिन	-11.5787
▁अब्दुल्ला	-11.5788
▁अपघटन	-11.579
▁पुजारी	-11.579
▁सिज़ोफ्रेनिया	-11.579
▁दरवाजा	-11.579
▁निमोनिया	-11.579
▁संहार	-11.579
▁साढ़े	-11.579
▁ऐड	-11.5791
▁हदीस	-11.5791
▁पंजीकरण	-11.5791
▁शक्तिपीठ	-11.5792
▁कवक	-11.5792
▁अंकुर	-11.5792
▁दश	-11.5793
▁भुजाओं	-11.5794
एड	-11.5795
▁1880	-11.5795
▁विस्टा	-11.5795
▁सहकारी	-11.5796
ुप्रसिद्ध	-11.5796
Xa	-11.5797
-15	-11.5798
▁चेतन	-11.5798
▁अमान्य	-11.58
केंद्र	-11.5802
▁समीकरणों	-11.5802
न्ज	-11.5806
▁पाम	-11.5808
▁योर	-11.5809
▁फ्रा	-11.5815
.3	-11.5817
▁जमाव	-11.5818
▁शिंजियांग	-11.5821
वृद्धि	-11.5823
▁1903	-11.5824
▁एली	-11.5825
▁900	-11.5827
▁प्रेषण	-11.5827
▁बीट	-11.5829
▁जैम	-11.5831
▁क्ल	-11.5834
▁मजदूरी	-11.5834
▁ख़िताब	-11.5843
▁ब्रदर्स	-11.5843
▁तकरीबन	-11.5843
टें	-11.5843
▁बिलबोर्ड	-11.5844
▁कैप	-11.5844
▁वियना	-11.5844
▁प्रवक्ता	-11.5844
▁सांभर	-11.5845
सेना	-11.5846
▁सूखा	-11.5847
म्बल	-11.5847
▁चतुर	-11.5847
▁पटियाला	-11.5848
▁29.	-11.5851
▁रेसिंग	-11.5853
स्वर	-11.5853
▁स्ट्र	-11.5855
चीपुर	-11.5857
आदि	-11.5858
▁बांड	-11.5859
यस	-11.586
▁स्वच्छता	-11.586
ेदार	-11.5862
▁अवधारणाओं	-11.5863
▁यक्ष	-11.5865
▁बहुल	-11.5866
▁अम्मा	-11.5866
▁पहुँचता	-11.5866
▁पृथ्वीराज	-11.5867
▁आपात	-11.5867
▁विजयी	-11.5868
}}}	-11.5869
Xe	-11.587
▁मौन	-11.5872
▁पाय	-11.5872
▁दार्शनिकों	-11.5874
▁स्तंभों	-11.5876
▁मानो	-11.5877
▁108	-11.5878
▁भो	-11.5882
▁यंग	-11.5883
यहाँ	-11.5884
▁तंतु	-11.5884
▁वृहत	-11.5887
▁नास्तिक	-11.5888
ल्क	-11.5888
▁pa	-11.5895
समान	-11.5895
▁दरअसल	-11.5897
▁टेलिविज़न	-11.5898
▁भूगर्भ	-11.5898
▁चंद्रगुप्त	-11.5898
▁संविदा	-11.5899
▁जस्ता	-11.59
▁वक्तव्य	-11.59
▁पन्न	-11.5901
▁बाएं	-11.5905
▁एयरलाइन्स	-11.5905
▁90%	-11.5905
गोल	-11.5909
▁निकास	-11.591
▁अज्ञान	-11.5913
रथ	-11.5916
▁मार्क्सवादी	-11.5917
रक्त	-11.592
क्ल	-11.592
▁रहस्यमय	-11.5922
▁मुद्राओं	-11.5923
▁पिच	-11.5923
▁दीं	-11.5927
▁संन्यासी	-11.5928
ाए	-11.5928
ाउंड	-11.593
8%	-11.593
▁रोकना	-11.5932
▁नीम	-11.5932
ेश्वरी	-11.5935
दह	-11.5935
पर्व	-11.5937
▁साम्राज्यवाद	-11.5938
▁विभेद	-11.5938
▁अम्लीय	-11.594
▁हिल्स	-11.5941
देह	-11.5941
▁बरसात	-11.5947
▁बौ	-11.5949
▁श्व	-11.595
▁पूर्वक	-11.5951
▁उद्धरण	-11.5952
▁ट्रिब्यून	-11.5952
▁कार्यपालिका	-11.5952
▁स्पैनिश	-11.5952
▁हिब्रू	-11.5952
▁कठिनाइयों	-11.5952
▁नॉर्मन	-11.5952
▁आपातकालीन	-11.5953
▁अराजकता	-11.5955
▁अनुभाग	-11.5955
▁स्कैन	-11.5957
▁ओवेन	-11.5957
▁धड़	-11.5957
▁अधो	-11.5958
▁मैग्	-11.5958
▁pre	-11.5959
▁बैग	-11.596
▁140	-11.596
▁सोनिया	-11.5962
▁रनवे	-11.5963
फ्फ	-11.5964
▁91	-11.5965
साकी	-11.5967
विले	-11.5968
▁क़ा	-11.5969
ja	-11.5972
tor	-11.5974
▁मोन	-11.5975
6,000	-11.5976
▁चलाए	-11.5977
▁सम्राटों	-11.5977
▁ओल	-11.5978
▁बुध	-11.5978
▁अनन्य	-11.5979
▁क्लास	-11.5979
द्रा	-11.5983
▁over	-11.5984
▁छुपा	-11.5984
ेश्	-11.5985
ुवा	-11.5986
आउट	-11.5986
दृष्टि	-11.599
जुलत	-11.5991
▁छान	-11.5992
प्रकार	-11.5992
प्राप्त	-11.5995
यता	-11.5995
▁सिन्धी	-11.5997
▁फैलता	-11.5997
TV	-11.5998
भ्य	-11.5999
sc	-11.6002
र्ध	-11.6003
▁लेखिका	-11.6004
▁Windows	-11.6006
▁अप्रत्याशित	-11.6006
▁चाणक्य	-11.6006
▁परिलक्षित	-11.6006
▁अमोनिया	-11.6007
▁ऑक्सीकरण	-11.6007
▁डबल्यू	-11.6007
▁पुरस्कृत	-11.6007
▁हिस्सेदारी	-11.6008
▁आरक्षण	-11.6009
▁टेलीग्राफ	-11.6009
▁into	-11.601
▁प्रमुखता	-11.6011
▁तस्वीरें	-11.6011
▁इन्ही	-11.6011
▁कुम्भ	-11.6012
गुल	-11.6014
par	-11.6016
▁out	-11.6017
▁जीने	-11.6017
▁पारद	-11.6018
▁ज़ा	-11.6019
▁पंखों	-11.602
▁मनोहर	-11.6021
कभार	-11.6022
tri	-11.6026
औ	-11.6027
▁जलाशय	-11.6027
▁खिला	-11.6028
▁नियंत्रक	-11.6029
▁प्रशा	-11.603
▁ट्रि	-11.6031
क्षेप	-11.6032
पल्ल	-11.6033
▁कृत्य	-11.6033
▁हैदर	-11.6036
---	-11.6037
▁मुल	-11.604
ल्म	-11.6041
▁चलाई	-11.6042
▁जुट	-11.6043
▁पैक	-11.6044
▁मणिपुरी	-11.6045
आर्थिक	-11.6045
आधुनिक	-11.6046
फ्री	-11.6046
▁गुजरता	-11.6048
ैनिक	-11.6051
हत्या	-11.6054
▁प्रतिबिंब	-11.6055
▁पुनरावर्तन	-11.6057
▁निक्षेप	-11.606
▁महज	-11.606
▁जॉर्डन	-11.6061
▁कबीले	-11.6061
▁पेंशन	-11.6061
▁अमल	-11.6062
▁शॉपिंग	-11.6062
▁लड़कों	-11.6063
▁Pakistani	-11.6063
ेट्स	-11.6063
ैड	-11.6063
▁काच	-11.6063
फाइ	-11.6064
▁मालवीय	-11.6064
▁लक्षित	-11.6064
▁नाइजर	-11.6065
▁प्रतिभूति	-11.6065
▁यमन	-11.6065
▁मुंशी	-11.6065
▁रमापुर	-11.6065
मक	-11.6066
ial	-11.6067
दै	-11.6068
▁महेश	-11.6072
▁शाखाएं	-11.6076
शियल	-11.6081
▁वैयक्तिक	-11.6081
▁निराशा	-11.6083
बैंक	-11.6083
▁आन	-11.6084
राब	-11.6087
▁पावन	-11.6087
▁रिक	-11.6087
सद	-11.6087
कारा	-11.6092
▁गुजरने	-11.6096
कैट	-11.6099
ंगो	-11.6099
सोल	-11.6105
्वान	-11.6109
▁लामा	-11.6112
▁अम्	-11.6113
▁शाप	-11.6116
▁जबरदस्त	-11.6117
▁परिप्रेक्ष्य	-11.6117
▁लौकिक	-11.6117
▁लेनदेन	-11.6117
▁कंधे	-11.6117
▁केदारनाथ	-11.6117
▁कपाल	-11.6117
io	-11.6118
▁सरहद	-11.6118
जार	-11.612
▁मॉडलों	-11.612
▁सचिन	-11.6122
▁आद्य	-11.6123
.00	-11.6126
▁गोप	-11.613
ट्रे	-11.613
▁तबाह	-11.6133
▁चालुक्य	-11.6136
▁रियो	-11.614
ुष	-11.6141
▁पेशी	-11.6141
गृहीत	-11.615
षित	-11.6151
▁Th	-11.6154
सामाजिक	-11.6158
बन्ध	-11.6158
▁पीपल	-11.616
िडा	-11.6163
▁रावल	-11.6169
▁प्लस	-11.617
▁वेस्टइंडीज	-11.6172
▁रोचेस्टर	-11.6172
न्याय	-11.6173
▁भाषाएं	-11.6173
▁कच्चा	-11.6173
▁ब्रायन	-11.6174
▁डॉयल	-11.6174
▁हिरन	-11.6174
▁जागरण	-11.6174
▁बेंगलूर	-11.6174
▁विरल	-11.6176
▁आवश्यकतानुसार	-11.6177
▁अयोग्य	-11.6183
्रू	-11.6186
▁उगाय	-11.619
फेल	-11.6191
कुंअर	-11.6192
क़ा	-11.6192
डॉ॰	-11.6192
▁यथार्थवाद	-11.6194
▁अल्फा	-11.6195
▁93	-11.6196
▁निभाता	-11.6197
▁फ़्र	-11.6202
▁कोने	-11.6204
ca	-11.6205
ीश	-11.6207
▁प्लेटो	-11.6209
▁they	-11.6212
▁आइस	-11.6212
सुलझाने	-11.6213
▁ग्रास	-11.6214
▁करनेवाला	-11.6214
मिला	-11.6216
लक्षण	-11.6216
▁पारा	-11.6217
रियल	-11.6217
आइल	-11.6219
देवताओं	-11.622
▁वाम	-11.622
रौली	-11.622
▁कामों	-11.622
bi	-11.6222
पीठ	-11.6222
ang	-11.6224
▁रम	-11.6224
संयुक्त	-11.6226
pur	-11.6226
▁स्थग	-11.6226
▁रिले	-11.6227
▁इच्छुक	-11.6228
▁वैचारिक	-11.6228
▁सोमालिया	-11.6228
▁दैत्य	-11.6228
▁इसीलिये	-11.6228
▁सर्जरी	-11.6228
▁बटालियन	-11.6228
▁हुसंग	-11.6228
▁पाण्डेय	-11.6229
▁तिवारी	-11.6229
▁कर्मियों	-11.6229
▁निपटान	-11.6232
▁सिरों	-11.6232
▁1904	-11.6233
▁पंक्तियों	-11.6233
▁पागल	-11.6233
्मे	-11.6234
दायक	-11.6234
▁आँकड़	-11.6235
गिल	-11.6236
▁कर्ज	-11.6237
▁निभाते	-11.6238
▁आनुवंशिकी	-11.6238
▁देशभक्ति	-11.6239
▁दूरस्थ	-11.6241
ाईपुर	-11.6241
▁अप्र	-11.6243
▁संकल्पना	-11.6243
▁वैली	-11.6248
▁भारतेंदु	-11.6248
टिल	-11.6254
रियर	-11.6255
▁पंज	-11.6257
सोम	-11.6259
▁आदित्य	-11.6263
▁काण्ड	-11.6267
▁पेपर	-11.6269
वर्थ	-11.6273
मुख्य	-11.6275
▁तना	-11.6275
ग्रहण	-11.6275
▁25.5	-11.6278
▁डी॰	-11.6278
लेज	-11.6279
मोह	-11.628
▁मिश्रधातु	-11.628
▁96	-11.6283
ँट	-11.6284
▁त्रिपाठी	-11.6284
▁बावड़ी	-11.6284
▁धूमकेतु	-11.6284
▁तुल्य	-11.6284
▁This	-11.6285
▁मुहाने	-11.6285
स्र	-11.6285
▁साक्षी	-11.6287
▁भस्म	-11.6287
▁पौत्र	-11.6288
▁शील	-11.6293
▁पी॰	-11.6293
MS	-11.6296
▁एंव	-11.6297
रीन	-11.6297
संख्या	-11.6298
वय	-11.6299
पुल	-11.63
▁मगरमच्छ	-11.6302
▁बर्बर	-11.6303
▁चौथाई	-11.6304
▁सीमांत	-11.6307
पाइ	-11.6309
XC	-11.6309
▁श्रवण	-11.631
िली	-11.6311
▁अष्टम	-11.6312
▁महलों	-11.6312
▁वैद्य	-11.6313
▁साँस	-11.6314
▁खोजों	-11.6316
साम	-11.6316
तापूर्वक	-11.6317
र्टन	-11.6318
▁जीभ	-11.6318
▁समरूप	-11.6319
▁क्रमांक	-11.6319
याल	-11.6323
▁पितृ	-11.6328
ढ़ी	-11.6331
नंदन	-11.6334
▁कूपर	-11.6334
▁संयम	-11.6335
दोष	-11.6337
▁अन्याय	-11.6339
▁दूतावास	-11.6341
▁ब्राउज़र	-11.6341
▁कंट्रोल	-11.6341
▁क्षतिपूर्ति	-11.6341
▁विरोधाभास	-11.6341
▁गोपीनाथ	-11.6341
▁हरिवंश	-11.6342
▁रीढ़	-11.6342
▁वल्लभ	-11.6342
▁गड़िया	-11.6342
▁थैली	-11.6342
वित	-11.6343
▁बिल्ली	-11.6343
खन	-11.6343
▁संवेग	-11.6343
▁सस्ते	-11.6344
▁वेदांत	-11.6344
▁शिलांग	-11.6345
▁विभव	-11.6346
▁3-	-11.6347
▁पुट	-11.6349
▁पीतल	-11.635
▁परौली	-11.6351
च्छा	-11.6351
ov	-11.6354
ative	-11.6355
▁उठाते	-11.6355
▁निवेशक	-11.6359
▁विक	-11.6361
▁चिट्ठ	-11.6361
▁पारस	-11.6364
▁फॉर्म	-11.6365
रुद्दीन	-11.6365
▁लटक	-11.6366
ंसी	-11.6367
7%	-11.6369
▁दोहरी	-11.6372
▁चुनी	-11.6372
।..	-11.6372
▁बिखर	-11.6376
▁फॉ	-11.6381
▁पदवी	-11.6381
▁जीतकर	-11.6395
संगीत	-11.6397
▁ताँबा	-11.6398
▁मराठों	-11.6398
▁कारखानों	-11.6398
▁तुगलक	-11.6398
▁लेबनान	-11.6398
▁नामीबिया	-11.6398
▁तदनुसार	-11.6398
▁अवतरण	-11.6399
▁लपेट	-11.6399
▁कराची	-11.64
▁विवश	-11.6401
▁पिछड़े	-11.6402
किंग्स्टन	-11.6404
▁चिपक	-11.6404
▁विलेय	-11.6406
बैक	-11.6406
▁प्रतीकात्मक	-11.6406
▁इंजनों	-11.6406
▁पाइप	-11.6409
ूरा	-11.641
▁सूरी	-11.6415
▁प्रक्षेपित	-11.6417
▁देवकी	-11.6419
▁सांद्रता	-11.6419
▁दही	-11.6423
▁टेड	-11.6426
यदि	-11.6429
ाः	-11.6435
▁व्यवसायिक	-11.6436
Xo	-11.6436
▁सौभाग्य	-11.6437
विच	-11.6439
▁सूचनाओं	-11.644
▁फायर	-11.6441
▁चर्म	-11.6441
▁सार्थक	-11.6445
▁विपक्षी	-11.6446
▁छत्रपति	-11.6447
▁नियोजित	-11.6448
▁विलियम्स	-11.645
▁अक्षम	-11.6455
▁उरुग्वे	-11.6455
▁ठुकरा	-11.6455
▁वक़्त	-11.6455
▁संकुचन	-11.6455
▁ज़रिये	-11.6455
▁मंडप	-11.6455
▁वेधशाला	-11.6455
▁निजामुद्दीन	-11.6455
▁जनतांत्रिक	-11.6456
▁रस्सी	-11.6457
▁आलोचनात्मक	-11.6457
▁शरीररचना	-11.6459
▁उपभाषा	-11.6461
ूं	-11.6463
▁सौदे	-11.6463
gu	-11.6463
राशि	-11.6464
क्लर्क	-11.6465
▁आठवें	-11.6466
ाइटिस	-11.6468
▁सज़ा	-11.6469
▁पैदावार	-11.6469
इर	-11.647
▁लल	-11.647
विवाह	-11.6473
िष्	-11.6473
▁डल	-11.6474
▁अफसर	-11.6477
▁अम्लों	-11.6477
▁शिर	-11.6478
▁संन्यास	-11.6481
डियम	-11.6483
▁होस्ट	-11.6484
▁मुर्ग	-11.6489
▁प्राचीनकाल	-11.6489
▁सीमाएँ	-11.649
▁ट्रेड	-11.649
▁लगाव	-11.6491
▁निकायों	-11.6493
खि	-11.6497
▁गिरी	-11.6498
▁अपनाई	-11.6499
▁चाक	-11.6508
▁छोड	-11.6509
▁फेलु	-11.6511
▁हार्वर्ड	-11.6512
सऊदी	-11.6512
▁साइबर	-11.6513
▁तनु	-11.6514
मंत्री	-11.6514
▁डोमेन	-11.6515
▁बंगला	-11.6515
▁1858	-11.6517
▁घूमती	-11.6517
▁विस्थापन	-11.6518
▁दीपक	-11.6518
नंद	-11.6518
▁फर्श	-11.652
▁महाकवि	-11.6521
पियर	-11.6521
▁निकोलस	-11.6523
▁कोणीय	-11.6524
▁जड़ों	-11.6524
ाश	-11.6526
केश	-11.6527
र्कटिक	-11.6528
सस	-11.6528
▁फोर्स	-11.6529
ुअल	-11.6529
▁स्कूली	-11.653
▁नम्बर	-11.653
XR	-11.6535
nt	-11.6535
▁डिस्	-11.6536
▁लड़ी	-11.6536
शहर	-11.6536
यं	-11.6537
▁सी॰	-11.6537
लित	-11.6538
▁ढका	-11.654
▁एडी	-11.6543
नेल	-11.6549
▁प्रदीप	-11.655
हड़	-11.6551
▁विभ	-11.6556
▁कैमरे	-11.656
▁अदालतों	-11.6562
पद्धति	-11.6562
▁Man	-11.6563
फोर	-11.6564
त्याग	-11.6565
▁कवरेज	-11.6569
▁टोर	-11.6569
▁अरविन्द	-11.657
▁निष्कासित	-11.657
▁उपसर्ग	-11.657
▁अरुणाचल	-11.657
▁छात्रावास	-11.657
▁गिरोह	-11.657
उम	-11.6571
▁जमशेदपुर	-11.6571
▁स्टार्च	-11.6571
▁मुकेश	-11.6571
▁बिताया	-11.6572
▁फायदे	-11.6574
श्रेणी	-11.6574
▁अधीनस्थ	-11.6574
▁परेड	-11.6576
▁हक	-11.6578
▁पूछ	-11.6579
कर्षण	-11.6579
▁आमाशय	-11.658
▁पत्तों	-11.6581
▁सीखा	-11.6581
▁हिला	-11.6582
▁पुकार	-11.6586
▁बटन	-11.6588
थम	-11.6589
दरी	-11.659
▁पक	-11.659
▁प्रयोगात्मक	-11.659
▁Ch	-11.6591
XO	-11.6591
फन	-11.6591
▁नाच	-11.6592
▁जता	-11.6592
▁टीले	-11.6596
▁झु	-11.6597
कोन	-11.6597
पेन	-11.66
▁कामकाज	-11.6601
▁चेन	-11.6603
▁संप्रदायों	-11.6603
न्ह	-11.6606
▁चिप	-11.6606
▁ह्यू	-11.6607
▁छात्रवृत्ति	-11.6609
इन्	-11.6609
▁बौद्धों	-11.6611
कने	-11.6612
▁सामयिक	-11.6612
▁मिलान	-11.6613
▁निराश	-11.6614
▁कूल	-11.6615
▁मदर	-11.6616
▁di	-11.6618
▁डेव	-11.6618
▁कुम	-11.662
शीर्ष	-11.6621
▁13.	-11.6621
▁शौक	-11.6622
बिंदु	-11.6622
▁मंगलौर	-11.6622
▁किस्मों	-11.6624
▁महि	-11.6627
▁Edward	-11.6628
▁अनुमोदन	-11.6628
▁पैगम्बर	-11.6628
▁मंत्रिपरिषद	-11.6628
▁प्रतीक्षा	-11.6628
▁हिस्ट्री	-11.6628
▁स्पीकर	-11.6628
▁धकेल	-11.6629
▁उपराष्ट्रपति	-11.6629
▁सुमेर	-11.663
▁गैल	-11.663
बलडन	-11.6631
ल्हा	-11.6631
▁रोकता	-11.6633
▁आँखें	-11.6634
लोप	-11.6635
▁थ्र	-11.6637
जुलते	-11.6639
▁ध्वनियों	-11.664
राल	-11.664
ाग्र	-11.6642
▁बसंत	-11.6646
▁जरूरतों	-11.6648
▁गाते	-11.6651
▁टूटने	-11.6651
▁घुड़सवार	-11.6655
▁क्रै	-11.6656
▁वामन	-11.6657
▁क्रिकेटर	-11.6658
ाति	-11.6659
Xn	-11.666
लाह	-11.6661
▁आदर्शों	-11.6664
शरण	-11.6665
▁Na	-11.6667
▁जगा	-11.6667
सम्	-11.6669
▁use	-11.667
▁भड़क	-11.6675
पोर	-11.6679
ोड़ा	-11.6683
▁अभिषेक	-11.6687
▁निःशुल्क	-11.6687
▁मारिया	-11.6687
▁दिखायी	-11.6688
▁तले	-11.6689
▁कराटे	-11.6689
▁मिसाल	-11.6689
▁जफर	-11.669
▁प्रतिलिपि	-11.669
टेड	-11.669
▁महंगा	-11.6691
ng	-11.6694
▁टोनी	-11.6697
▁वाइरस	-11.6699
वध	-11.6699
▁सत्रह	-11.67
ani	-11.67
▁कार्यभार	-11.6702
▁पोषित	-11.6703
▁उत्तरोत्तर	-11.6704
▁मार्केट	-11.6704
▁कुलपति	-11.6706
▁अका	-11.6707
▁गायों	-11.6708
▁शाक	-11.6708
▁छड़	-11.671
▁चीफ	-11.671
दंत	-11.6711
▁मालिकों	-11.6713
▁पॉली	-11.6715
rm	-11.672
▁कलिंग	-11.6721
▁फैलाने	-11.6722
धू	-11.6724
dy	-11.6725
▁दाहिन	-11.6736
पाक	-11.6737
▁अध्	-11.6743
▁अलेक्जेंड्रिया	-11.6745
▁गंतव्य	-11.6745
▁समन्वित	-11.6745
▁कहलाने	-11.6746
▁शल्यचिकित्सा	-11.6746
▁समुद्रतट	-11.6746
▁वृत्तचित्र	-11.6746
▁चेहरा	-11.6746
▁Com	-11.6746
▁ष	-11.6746
साई	-11.6746
▁नवाचार	-11.6747
स्थित	-11.6749
▁गोकुल	-11.675
▁इम	-11.675
▁हाइपर	-11.6751
वर्धक	-11.6751
वाहन	-11.6752
ऊँ	-11.6753
एफसी	-11.6755
▁हावी	-11.6757
▁कम्प	-11.6757
▁ढंक	-11.6758
मंत्र	-11.676
▁भरतपुर	-11.6762
क्षम	-11.6763
मीर	-11.6764
▁चिकित्सकीय	-11.6766
मुन	-11.6767
log	-11.6768
▁दासों	-11.6769
▁आनेवाले	-11.6774
▁so	-11.6776
▁गेज	-11.6781
ंघ	-11.6784
▁ज़ि	-11.6786
▁लाते	-11.6788
▁ऐल्	-11.6791
▁करुणा	-11.6795
▁ख़राब	-11.6795
डम	-11.6795
▁क्ला	-11.6798
अं	-11.6798
अमेरिकी	-11.6801
प्रदेश	-11.6801
▁अठारह	-11.6802
एससी	-11.6802
पाली	-11.6803
dr	-11.6804
त्रिवेंद्रम	-11.6805
▁गम्भीर	-11.6805
▁निष्कासन	-11.6805
▁पोटेंशिअल	-11.6805
▁स्विट्जरलैंड	-11.6805
▁सॉसेज	-11.6805
▁उठाए	-11.6805
▁निष्पक्ष	-11.6805
▁आलेख	-11.6806
▁ब्लेड	-11.6807
▁प्रचारित	-11.6811
क्षु	-11.6811
▁ईथर	-11.6812
▁वैभव	-11.6813
▁कड़े	-11.6816
▁40%	-11.6818
▁लाइनों	-11.682
Xk	-11.6825
पंच	-11.6827
▁ग्	-11.6827
कौ	-11.6827
दपुर	-11.6829
▁पड़ोस	-11.6829
▁अत्य	-11.6829
▁पूर्णांक	-11.6831
▁सतही	-11.6832
सुधार	-11.6833
▁ठहर	-11.6833
▁खेम	-11.6836
▁हमलावर	-11.6837
▁पन्ना	-11.6838
▁97	-11.6843
ीयता	-11.6844
वक	-11.6845
▁स्तोत्र	-11.6845
▁पहुँचकर	-11.6845
AT	-11.6846
▁कॉन्	-11.6846
आंग	-11.6848
ानिक	-11.6849
व्स	-11.6849
तुर	-11.6856
ग्रन्थ	-11.6858
▁सितारे	-11.6859
▁लाभकारी	-11.686
बहादुर	-11.6862
लाइ	-11.6864
▁बार्सिलोना	-11.6864
▁वॉशिंगटन	-11.6864
▁हुमायूँ	-11.6864
▁टोरंटो	-11.6864
▁पुनर्जीवित	-11.6864
▁हस्तशिल्प	-11.6864
▁कहलाए	-11.6864
▁गुड़गांव	-11.6864
▁सम्मुख	-11.6865
▁खातों	-11.6865
▁तख्त	-11.6865
▁पल्लव	-11.6866
▁प्रवृति	-11.6866
ल्ले	-11.6867
▁you	-11.6867
▁पिक्चर्स	-11.6869
▁हर्ट्ज	-11.687
▁सेवानिवृत्ति	-11.687
▁शिलाओं	-11.6871
फ़िंच	-11.6872
वचन	-11.6876
ब्रे	-11.6876
od	-11.6877
द्वि	-11.6883
▁सेंसर	-11.6885
ट्यू	-11.6887
ब्य	-11.6889
▁प्रतिहार	-11.689
युग्म	-11.6891
▁अन्तरराष्ट्रीय	-11.6892
▁वक्ष	-11.6892
सटन	-11.6892
्जा	-11.6896
णीय	-11.6897
▁आंत	-11.6904
▁तेजपुर	-11.6907
XF	-11.6908
▁बिता	-11.6913
▁विध्वंस	-11.6914
▁गी	-11.6914
▁बेकार	-11.6916
स्सा	-11.6919
अमेरिका	-11.6923
▁सांद्र	-11.6924
▁असहयोग	-11.6924
▁घोड़ों	-11.6924
▁द्रौपदी	-11.6924
▁पपड़ी	-11.6924
▁संकुचित	-11.6924
▁हिरासत	-11.6924
▁ब्लेयर	-11.6924
▁मिथ्या	-11.6924
▁अंधविश्वास	-11.6924
▁फ्राइडे	-11.6924
▁वार्तालाप	-11.6924
▁इंटरफेस	-11.6924
▁वास्	-11.6925
▁स्पा	-11.6925
▁निभायी	-11.6925
▁बगैर	-11.6925
▁यादगार	-11.6926
▁मताधिकार	-11.6926
▁वां	-11.6927
ew	-11.6927
▁अधिकरण	-11.6927
▁मूर्तिकला	-11.6927
▁फ्लेमिंग	-11.6929
▁हिंदु	-11.6929
▁सोर्स	-11.6929
▁घराने	-11.693
▁वॉल्ट	-11.693
▁जूते	-11.6932
▁टीमें	-11.6935
▁जं	-11.6935
▁नागराज	-11.694
▁तं	-11.694
▁नाममात्र	-11.694
▁फीड	-11.6941
▁स्की	-11.6943
▁सूक्ष्मजीव	-11.6944
▁पांचवें	-11.6947
▁स्क्रिप्ट	-11.6948
▁साईं	-11.6952
▁खरीदारी	-11.6953
▁निकालना	-11.6954
▁तंज	-11.6956
चन्द	-11.6959
▁पठन	-11.6962
गिन	-11.6963
ds	-11.6965
▁लोड	-11.6966
▁प्लान	-11.6967
▁खानों	-11.6967
ण्य	-11.6971
▁असफलता	-11.6978
▁अभिकल्प	-11.698
पट्टी	-11.698
▁अम्बेडकर	-11.6984
▁गंगोत्री	-11.6984
▁झाँसी	-11.6984
▁सिलसिले	-11.6984
▁स्तनधारियों	-11.6984
▁फ़्रिसिया	-11.6984
▁लाइबेरिया	-11.6984
▁कनेक्शन	-11.6984
▁some	-11.6985
पत्नी	-11.6985
स्ट्रा	-11.6985
▁220	-11.6985
▁मुहैया	-11.6985
छिद्र	-11.6985
▁कुचल	-11.6985
▁गर्भावस्था	-11.6985
▁मनोरम	-11.6985
▁ब्रि	-11.6985
▁बतलाया	-11.6986
▁महायुद्ध	-11.6986
▁झुंड	-11.6987
▁न्यु	-11.6987
▁ट्रा	-11.6987
शास्त्री	-11.6987
ions	-11.6987
लौ	-11.6988
▁समुद्रतल	-11.6988
▁1860	-11.6989
▁रोमानी	-11.6989
pi	-11.699
▁प्रोटो	-11.699
▁खोले	-11.6992
▁मध्यस्थता	-11.6992
▁Ka	-11.6996
स्ते	-11.6996
▁पहलवान	-11.6997
▁पड़ाव	-11.6998
▁डेरा	-11.6999
अर्	-11.7002
तपुर	-11.7004
▁कल्पित	-11.7006
ब्रो	-11.7009
▁उठाना	-11.701
▁फंस	-11.7012
▁जासूस	-11.7013
▁घनी	-11.7014
फै	-11.7015
ार्ड	-11.7015
▁up	-11.7016
▁कमांड	-11.7017
बॉल	-11.7018
▁उथल	-11.7018
्यूल	-11.7019
▁गेंदों	-11.7025
▁अधिकता	-11.7026
▁प्राप्	-11.7028
han	-11.7029
बाय	-11.7029
ूंगा	-11.703
▁मिट	-11.7031
▁मूर्त	-11.7034
▁01	-11.7036
▁कमला	-11.7037
तीय	-11.7038
▁जहाज़	-11.7041
▁कम्	-11.7042
▁दिला	-11.7042
▁भट	-11.7044
▁कुतुब	-11.7045
▁चतुर्वेदी	-11.7045
▁वार्मिंग	-11.7045
▁कार्बोनेट	-11.7045
▁नकद	-11.7046
▁शोधकर्ता	-11.7046
▁निमंत्र	-11.7046
खला	-11.7048
▁रणजीत	-11.7048
▁निसान	-11.7048
▁मिलीमीटर	-11.7048
▁Ro	-11.7048
▁क्रमबद्ध	-11.705
▁टर	-11.705
रॉन	-11.7051
▁आपेक्षिकता	-11.7052
▁शेयरों	-11.7053
XU	-11.7053
▁न्यास	-11.7053
▁दबाने	-11.7054
शू	-11.7056
▁रफ़ी	-11.7056
▁चोर	-11.7056
▁बचाया	-11.7059
▁नैनो	-11.706
▁Ba	-11.706
फ़्र	-11.7061
▁क्व	-11.7062
▁Di	-11.7063
▁पहाड	-11.707
▁कौरव	-11.707
सीए	-11.7073
्रिया	-11.7077
▁बची	-11.7079
▁आदत	-11.708
▁प्रबंधित	-11.7081
ंठ	-11.7083
ूस	-11.7083
▁श्रेणियाँ	-11.7084
▁शेल	-11.7086
अब	-11.7087
पन्न	-11.709
▁लियोन	-11.7091
app	-11.7092
▁चढ़ने	-11.7092
▁प्रतिमान	-11.7093
▁गृहस्थ	-11.7093
शास्र	-11.7093
XB	-11.7096
घन	-11.7096
▁बांस	-11.7096
विष	-11.7099
▁इन्हे	-11.7099
▁So	-11.71
▁लद्दाख	-11.71
▁विंग	-11.7101
▁राजेश	-11.7102
▁नरक	-11.7102
▁पिला	-11.7103
▁गाए	-11.7104
रक्षा	-11.7106
▁अल्मोडा	-11.7106
▁ईक्वाडोर	-11.7106
▁एथेंस	-11.7106
▁नतीजतन	-11.7106
▁जादुई	-11.7106
▁प्रत्यावर्ती	-11.7106
▁ज़िक्र	-11.7106
▁सूबेदार	-11.7107
▁दृष्टिगोच	-11.7107
▁क्रू	-11.7107
▁ऐक्शन	-11.7108
▁मीठा	-11.7108
▁विचरण	-11.7109
छोटी	-11.7109
▁मतानुसार	-11.711
▁क्लार्क	-11.711
▁एफ़	-11.7111
▁सक	-11.7112
▁अंगूठी	-11.7113
▁मांसाहारी	-11.7113
▁बढ़ाता	-11.7114
भक्त	-11.7117
▁सेक्टर	-11.7117
▁शल्यक्रिया	-11.7117
▁1902	-11.7118
ख्	-11.7119
अपॉन	-11.7119
सब	-11.7122
▁खासी	-11.7123
▁म्	-11.7124
ld	-11.7129
▁बर्ड	-11.7129
▁सान	-11.7129
लोग	-11.7132
▁सोचने	-11.7132
पीए	-11.7133
▁साई	-11.7135
▁पाठ्यक्रमों	-11.7135
▁see	-11.7137
▁बृहत्	-11.7139
▁अनुकूलित	-11.7141
आलम	-11.7143
र्निया	-11.7145
▁IV	-11.7146
फ्रा	-11.7146
▁कार्यक्षेत्र	-11.7147
लह	-11.715
सीआर	-11.7151
▁27.	-11.7152
रक्षक	-11.7155
ala	-11.7156
ौरा	-11.7158
chi	-11.7159
नेपाल	-11.716
▁विषयक	-11.716
्लिंगटन	-11.7163
XE	-11.7164
▁प्रदर्शनों	-11.7166
▁सैद्धान्तिक	-11.7167
▁दुबई	-11.7167
▁फ़्रांसीसी	-11.7167
▁उत्पीड़न	-11.7167
▁चिंतित	-11.7167
▁टेक्सास	-11.7168
▁14.	-11.7168
▁बोस्टन	-11.7169
एसएसडी	-11.717
कल्याण	-11.717
▁वीथी	-11.717
▁Br	-11.7171
▁कराए	-11.7171
center	-11.7172
▁डांस	-11.7173
सिम	-11.7173
Xv	-11.7173
▁कार्यप्रणाली	-11.7174
▁पृ	-11.7175
▁स्विस	-11.7177
▁न्यूज	-11.7178
▁शासकीय	-11.718
▁ग़	-11.7182
▁रियल	-11.7182
▁दीवारें	-11.7182
▁अनाथ	-11.7184
▁रामदेव	-11.7187
▁चूने	-11.7188
!"	-11.7188
क्षित	-11.719
▁बॉयल	-11.719
जिल	-11.7191
चै	-11.7193
मुल्ला	-11.7194
▁क्री	-11.7195
सन्	-11.7197
▁क्रिश्चियन	-11.7197
वाने	-11.7199
▁सैर	-11.7199
▁फ्रेम	-11.7202
▁रामनगर	-11.7207
मरी	-11.7207
क्वि	-11.7209
गमन	-11.7212
खोर	-11.7212
मृ	-11.7212
त्सु	-11.7212
▁प्रशस्त	-11.7213
▁मजबूती	-11.7214
थ्र	-11.7214
▁युगों	-11.7214
▁चाहा	-11.7215
▁लीन	-11.7216
▁चिकनी	-11.7219
▁उर्वर	-11.7223
▁रूक	-11.7223
▁इव	-11.7225
▁two	-11.7229
▁अल्कोहल	-11.7229
▁आवंटित	-11.7229
▁जमैका	-11.7229
▁पतंजलि	-11.7229
▁प्रादुर्भाव	-11.7229
▁बलात्कार	-11.7229
▁सीपीयू	-11.7229
▁सुश्रुत	-11.7229
▁James	-11.7229
▁इंगलैंड	-11.7229
▁शुभारंभ	-11.7229
▁उमा	-11.7229
▁सेनेगल	-11.7229
▁गॉ	-11.723
▁डेमोक्रेटिक	-11.723
▁संग्रहीत	-11.7231
▁आंत्र	-11.7231
▁धमनियों	-11.7232
▁ऐं	-11.7233
▁लोप	-11.7233
▁जियो	-11.7233
▁अदृश्य	-11.7234
▁क्यूंक	-11.7234
▁पकवान	-11.7234
▁ईसाइयों	-11.7235
ऊतक	-11.7235
वर्तमान	-11.7236
▁जीर्ण	-11.7237
▁संयंत्रों	-11.7238
ीर	-11.7239
unt	-11.7239
▁एम॰	-11.724
▁पंद्रहवी	-11.7243
▁धनात्मक	-11.7244
▁संबध	-11.7246
▁दशाओं	-11.7247
▁फ़ारस	-11.7248
▁चाँद	-11.7255
▁चरित	-11.7255
फ्र	-11.7256
हिंदी	-11.7256
▁प्रज्ञा	-11.7258
कोष	-11.7259
▁रसायनों	-11.7261
भवन	-11.7264
वाक्य	-11.7266
▁ड्रम	-11.7267
बाब	-11.7269
▁कटु	-11.727
▁मिटा	-11.7276
▁मंड	-11.7283
▁ऑपरेटर	-11.7285
▁फिल्मो	-11.7289
बत	-11.7289
▁कज़ाख़	-11.7291
▁मैनेजमेंट	-11.7291
▁संभल	-11.7291
▁उत्खनन	-11.7291
▁मृदु	-11.7291
▁संभोग	-11.7292
▁ऑस्कर	-11.7293
▁पेशावर	-11.7293
▁व्रण	-11.7293
▁हवाला	-11.7293
▁Bay	-11.7294
हाउं	-11.7294
▁एप	-11.7295
▁बताये	-11.7295
▁राष्ट्रभाषा	-11.7297
सुख	-11.7298
ताप	-11.73
टलैंड	-11.7301
▁3.5	-11.7301
▁शाद	-11.7302
▁360	-11.7302
▁न्यायालयों	-11.7302
▁NA	-11.7307
▁नबी	-11.7308
प्पी	-11.731
▁ad	-11.731
▁वाक	-11.731
▁रक्तस्राव	-11.7312
▁महिलाएँ	-11.7317
▁समीक्षक	-11.7317
▁प्रतिष्ठान	-11.7319
ेक्शन	-11.732
▁टैक्स	-11.7325
▁धर्मसूत्र	-11.7327
▁गढ़ी	-11.7331
स्टोक	-11.7332
▁अंतत	-11.7332
▁कंद	-11.7332
▁पेरी	-11.7333
क्लोर	-11.7334
▁जुलत	-11.7336
▁रचे	-11.7336
▁शर्म	-11.7337
▁लहरों	-11.7337
▁चलना	-11.7338
ong	-11.7339
og	-11.734
▁ख़ु	-11.7343
▁फिन	-11.7344
su	-11.7344
▁डब्लू	-11.7347
▁मुर	-11.7349
धीर	-11.7349
▁थर्म	-11.7351
ईलिंग	-11.7353
▁अनगिनत	-11.7354
▁आयुर्विज्ञान	-11.7354
▁प्रीमियम	-11.7354
▁युगांडा	-11.7354
▁चिड़ियों	-11.7354
▁who	-11.7354
▁काकोरी	-11.7355
▁खन्ना	-11.7355
शुल्क	-11.7356
,600	-11.7357
िष्ठ	-11.7359
▁कैर	-11.736
तुम	-11.736
निर्णय	-11.7361
▁टाल	-11.7363
+2	-11.7363
मिस	-11.7363
▁शिवजी	-11.7364
▁गदर	-11.7364
ेरे	-11.7365
▁अस्थिरता	-11.7366
▁शोधन	-11.7366
ैचि	-11.737
विज्ञानी	-11.7372
▁माघ	-11.7374
देवता	-11.7375
▁चतुर्	-11.7376
▁चुरा	-11.7379
ासुर	-11.7381
▁एंट	-11.7381
यौ	-11.7383
2000	-11.7384
▁इच्छाओं	-11.7385
▁दिलचस्प	-11.7385
▁धारी	-11.7385
▁सेक्स	-11.7385
▁अकबरपुर	-11.7387
सक	-11.739
कुण्ड	-11.7391
ंदी	-11.7395
▁किशन	-11.7396
▁$1	-11.7399
▁गिरि	-11.7402
▁इंद्रिय	-11.7402
टोप	-11.7403
▁वश	-11.7408
▁क्रियाशील	-11.7409
संभालने	-11.7413
▁मरण	-11.7413
ल्लम	-11.7414
▁दोस्ती	-11.7415
▁दन्तबल्क	-11.7416
▁प्रणालियाँ	-11.7416
▁बगीचे	-11.7416
▁बल्लभ	-11.7416
▁बाहुबली	-11.7416
▁वल्लभभाई	-11.7417
▁नरसंहार	-11.7417
▁चौबीस	-11.7417
▁समायोजन	-11.7417
▁विद्यापीठ	-11.7417
▁नौसैनिक	-11.7417
▁उपशाखा	-11.7418
▁रेशे	-11.7418
▁जिल्ला	-11.7418
▁अग्रिम	-11.7418
gi	-11.7419
▁मालिश	-11.7421
▁गंगाधर	-11.7422
▁1897	-11.7422
▁1850	-11.7423
ोदय	-11.7424
घो	-11.7424
▁1815	-11.7428
▁1700	-11.7428
▁आंग्ल	-11.7428
▁आतंकवादियों	-11.743
▁नग्न	-11.743
नवेल	-11.743
मिथ	-11.7432
प्रागैतिहासिक	-11.7433
फू	-11.7434
▁यूनिवर्सल	-11.7435
▁जौहर	-11.7437
ंन	-11.7439
▁मुन	-11.7439
▁स्मारकों	-11.7441
ber	-11.7441
fa	-11.7441
7.5	-11.7444
बोर्ड	-11.7445
प्रयोग	-11.7449
▁तटों	-11.745
▁केन्या	-11.745
▁कोइल	-11.7455
▁स्नो	-11.7455
▁पहचाने	-11.7455
▁छड़ी	-11.7456
अक्स	-11.7456
ल्ह	-11.746
▁महासागरों	-11.746
ost	-11.7464
संचार	-11.7464
{2}	-11.7466
▁गत	-11.747
▁तंत्रों	-11.7471
ib	-11.7471
▁101	-11.7472
▁रूपये	-11.7473
▁सत्रों	-11.7475
▁रज्जु	-11.7476
ik	-11.7476
लॉजी	-11.7477
िंग्टन	-11.7477
▁प्रबंधकों	-11.7479
न्तु	-11.7479
▁GDP	-11.748
▁प्रणालियां	-11.748
▁निरूपित	-11.748
▁गुयाना	-11.748
▁मरणोपरांत	-11.748
▁ग्रसित	-11.748
▁शिथिल	-11.748
▁कैम	-11.748
बार्न्स	-11.748
▁तर्कसंगत	-11.748
▁ऑयल	-11.748
▁कलाकृतियों	-11.7481
▁राई	-11.7481
▁तातार	-11.7481
▁पद्मश्री	-11.7482
▁मलजल	-11.7482
▁अंगोला	-11.7483
▁राजपरिवार	-11.7484
▁प्रादेशिक	-11.7484
.6%	-11.7486
▁बेरोजगारी	-11.7487
▁नवरात्रि	-11.7487
संत	-11.7488
▁फसलें	-11.749
▁राजसी	-11.7492
if	-11.7495
▁50,000	-11.75
port	-11.7501
▁बडे	-11.7503
▁मिल्क	-11.7504
▁सार्व	-11.7505
▁पेट्रोल	-11.7505
ताई	-11.7511
▁ब्राग	-11.7512
्यता	-11.7512
▁विकल्पों	-11.7513
▁भीष्म	-11.7521
▁बकरी	-11.7525
▁कना	-11.7527
▁प्रलय	-11.7528
▁साँ	-11.7531
▁लक	-11.7534
सांगा	-11.7534
त्ति	-11.7535
▁धर्मनिरपेक्ष	-11.7536
▁पकड़े	-11.7537
▁पीड	-11.7538
ण्डी	-11.754
सिका	-11.7542
▁प्राइम	-11.7542
▁फ़ि	-11.7543
▁बढ़ोतरी	-11.7543
▁विघटित	-11.7543
▁दक्खिन	-11.7543
▁ब्रह्मचर्य	-11.7543
▁अंजाम	-11.7544
▁than	-11.7544
एसिटिक	-11.7544
▁श्रृंगार	-11.7544
▁प्रवचन	-11.7546
▁निद्रा	-11.7546
वेज	-11.7546
▁बहाल	-11.7546
▁सस्ती	-11.7548
▁त्रुटियों	-11.7548
तियों	-11.7548
▁1896	-11.7548
हिलिंग	-11.7552
हिया	-11.7553
▁भगा	-11.7553
▁महानतम	-11.7554
मंदिर	-11.7554
दिल्ली	-11.7555
कोटा	-11.7555
▁हंसा	-11.7558
▁असीम	-11.756
▁सुत्त	-11.7561
▁दुर्बल	-11.7561
▁नहरों	-11.7562
संहिता	-11.7562
▁सदाचार	-11.7566
▁चीता	-11.7567
िथ	-11.7568
कक्ष	-11.7569
▁सद्	-11.757
▁la	-11.757
▁बाप	-11.757
वृ	-11.7573
▁स्वदेश	-11.7574
भ्रम	-11.7578
▁पॉवर	-11.758
▁त्	-11.7581
▁चलाता	-11.7583
▁बहिर्	-11.7584
रूस	-11.7584
टाउन	-11.7584
▁पेशवा	-11.7584
ान्तरित	-11.7584
क्व	-11.7591
▁ठहरा	-11.7593
▁तुर	-11.7593
मिश	-11.7594
▁जुटा	-11.7595
▁सरकारें	-11.7596
▁पकड़ा	-11.76
▁सहर	-11.76
गरी	-11.7601
र्दे	-11.7601
▁तारक	-11.7603
▁इंडीज	-11.7605
▁मसाले	-11.7606
▁उर्फ	-11.7607
▁अनुसन्धान	-11.7608
▁खिड़की	-11.7608
▁पेंगुइन	-11.7608
▁डेंगू	-11.7608
▁चित्तौड़	-11.7608
▁अजीब	-11.7608
▁गायत्री	-11.7608
▁उदात्त	-11.7608
▁रैम	-11.7608
▁गुरखा	-11.7609
▁पारदर्शी	-11.7609
▁उपाध्याय	-11.7609
▁प्रतियोगी	-11.761
▁मीणा	-11.761
फ़ै	-11.7612
▁आयरन	-11.7612
▁दोहराया	-11.7612
योजक	-11.7615
सां	-11.7616
रवेल	-11.7616
▁98	-11.7617
▁अंबाला	-11.7618
▁पुर्तगालियों	-11.7618
▁भावनगर	-11.7619
▁बिन्दुओं	-11.7621
हिम	-11.7621
▁भे	-11.7622
स्टीन	-11.7623
▁क्वार्टर	-11.7623
▁0.1	-11.7626
ल्यू	-11.7626
▁ट्री	-11.7631
▁बँट	-11.7632
पद्म	-11.7633
धारण	-11.7638
▁अनि	-11.7639
▁जुडी	-11.7639
▁खेली	-11.7639
▁ताजिक	-11.7642
किर	-11.7644
्दा	-11.7645
खों	-11.7646
षि	-11.7648
▁चारो	-11.765
▁22.	-11.765
▁ट्रान्स	-11.7654
कोशिका	-11.7655
ज्जा	-11.7659
▁टाइ	-11.766
डियो	-11.766
▁गांधीजी	-11.7661
▁Te	-11.7661
हिन्द	-11.7668
स्वा	-11.7669
▁डिप्लोमा	-11.7672
▁प्रसिद्द	-11.7672
▁रॉयटर्स	-11.7672
▁सब्जियों	-11.7672
▁क्षुद्रग्रह	-11.7672
▁स्पेशल	-11.7672
▁डब्ल्यू॰	-11.7672
▁उपासक	-11.7672
▁दंगों	-11.7673
▁गर्भपात	-11.7673
▁एमआईटी	-11.7673
वेम्बली	-11.7673
▁वाट	-11.7674
ns	-11.7674
▁फ़सल	-11.7674
▁फासो	-11.7675
▁कम्पनियों	-11.7676
▁साइड	-11.7676
▁धम्म	-11.7676
les	-11.7677
▁लोदी	-11.7677
▁स्म	-11.7677
mar	-11.7677
न्हा	-11.7678
▁सुदर्शन	-11.7678
लिय	-11.7679
▁फार	-11.768
ोना	-11.7681
▁डिजाइनर	-11.7682
लवा	-11.7684
▁मेटल	-11.7686
▁परम्पराओं	-11.769
वृक्ष	-11.7691
line	-11.7692
▁अवार्ड्स	-11.7693
▁सूख	-11.7696
▁आदिवासियों	-11.7697
▁अण्डमान	-11.7697
ख़ान	-11.7698
▁निगल	-11.7698
▁आँ	-11.7698
तब	-11.7698
▁सापेक्षता	-11.7699
क्रमण	-11.7699
▁जातीं	-11.7701
▁बालकों	-11.7701
▁गियर	-11.7706
रवा	-11.7707
▁नकार	-11.7707
▁Go	-11.7708
▁शिलालेखों	-11.7712
ग्रो	-11.7715
▁दब	-11.7716
ब्रेंट	-11.7717
3.	-11.7719
▁नन्दा	-11.7723
थान	-11.7723
▁जॉनसन	-11.7724
कुट	-11.7725
▁तिरुचिरापल्ली	-11.7726
▁निपुण	-11.7728
नूर	-11.7731
बर्न	-11.7733
▁टेप	-11.7733
तला	-11.7733
ॉर्ड	-11.7734
▁अनूदित	-11.7737
▁क्रियान्वित	-11.7737
▁चिन्तन	-11.7737
▁ज्योतिर्लिंग	-11.7737
▁मेमोरियल	-11.7737
▁86.48	-11.7737
▁दशरथ	-11.7737
▁दिलीप	-11.7737
▁वृंदावन	-11.7737
▁क्रान्तिकारियों	-11.7737
▁ऐंडर	-11.7738
▁धोखा	-11.7738
▁राजमहल	-11.7739
▁धीमा	-11.7739
▁टोगो	-11.7739
▁वीणा	-11.7741
▁बेड	-11.7741
▁जूझ	-11.7742
▁1895	-11.7742
▁बापू	-11.7742
▁गोपनीयता	-11.7743
▁लड़ते	-11.7744
▁कटाई	-11.7744
▁2.0	-11.7745
▁मिलेगी	-11.7748
्डन	-11.7748
▁लीडर	-11.7749
ाणी	-11.7749
▁जलमार्ग	-11.7751
्यूर	-11.7752
▁रुस	-11.7753
छु	-11.7754
▁थाइरॉइड	-11.7756
ूक	-11.7758
ाइबोन	-11.7758
जैविक	-11.7761
▁शम	-11.7763
▁ग्रै	-11.7764
▁संस्मरण	-11.7764
▁सोते	-11.7768
▁No	-11.7769
▁संभावनाओं	-11.777
▁दिनांक	-11.777
▁जाग	-11.7775
aw	-11.7775
्रु	-11.7777
▁एपि	-11.778
▁कृत्यों	-11.778
▁पेंटिंग	-11.7786
▁जानकार	-11.7791
▁लैंगिक	-11.7792
वाना	-11.7793
▁निरोध	-11.7793
▁छंदों	-11.7793
▁फोर्ट	-11.7795
सरदार	-11.7796
रह	-11.7796
▁जहा	-11.7801
▁गेहूं	-11.7802
▁टैबलेट	-11.7802
▁निषिद्ध	-11.7802
▁पूँछ	-11.7802
▁ट्यूमर	-11.7802
▁दिखला	-11.7802
▁डाइऑक्साइड	-11.7802
▁इन्दौर	-11.7803
▁कैप्टन	-11.7803
day	-11.7803
▁सोलोमन	-11.7803
▁फीफा	-11.7803
नाई	-11.7804
▁पश्तो	-11.7804
▁प्रतीकों	-11.7804
▁गोमती	-11.7804
कारियों	-11.7806
▁चचेरे	-11.7806
▁ड्रे	-11.7807
▁हालात	-11.7807
▁हफ्ते	-11.7808
▁अमान	-11.7808
वैल	-11.7811
थ्	-11.7811
▁शेयरधारकों	-11.7812
अल्	-11.7812
कंड	-11.7813
क्षत्र	-11.7813
▁मेहराब	-11.7813
▁शांतिपूर्ण	-11.7814
▁विलास	-11.7815
प्रभाव	-11.7818
▁गंज	-11.782
▁ईंटों	-11.782
▁प्रयोगशालाओं	-11.7821
लास	-11.7821
▁आमिर	-11.7822
▁धातुएँ	-11.7822
▁पैगंबर	-11.7822
सरा	-11.7823
▁राजी	-11.7825
▁दोगुन	-11.7826
ाध्याय	-11.7827
▁उत्पादकता	-11.7828
टस	-11.7828
▁हब	-11.783
लियम	-11.7831
दूत	-11.7834
पार्क	-11.7836
मारी	-11.7836
mer	-11.7837
मांड	-11.7837
▁माध्यमों	-11.7838
▁दर्शनशास्त्र	-11.7842
▁स्पाइवेयर	-11.7846
▁बहुमुख	-11.7848
्स्क	-11.7848
1%	-11.7852
बीच	-11.7853
▁कमाने	-11.7856
वाडा	-11.7858
▁निरंकुश	-11.7859
▁बंट	-11.786
▁फोर्ड	-11.786
▁फ़र	-11.7864
▁जागृत	-11.7865
ग्रेट	-11.7865
▁मायो	-11.7865
▁20,000	-11.7867
टिक्स	-11.7868
▁ऐल्यूमिनियम	-11.7868
▁टर्बाइन	-11.7868
▁ख़ैबर	-11.7868
▁वेस्टमिन्स्टर	-11.7868
▁मातृभूमि	-11.7869
▁निवेदन	-11.7869
▁परिक्षण	-11.787
▁रोमांस	-11.787
▁वाल्व	-11.7871
नील	-11.7872
▁सदनों	-11.7873
ग्रंथि	-11.7873
क्लि	-11.7875
ख़ा	-11.7875
▁रेव	-11.7876
लाग	-11.7878
त्तर	-11.7878
▁23.	-11.7879
फिक	-11.7886
शिल्प	-11.7886
▁चलाये	-11.7887
▁जस	-11.789
जेट	-11.7893
▁कोला	-11.7897
▁प्रत्या	-11.7898
▁गढ	-11.7899
▁प्रतियां	-11.7899
2.	-11.7899
▁सीनेट	-11.79
तरह	-11.7901
्स्की	-11.7901
्रम	-11.7903
मुनि	-11.7903
न्शी	-11.7904
▁पिंडों	-11.7907
▁आधुनिकीकरण	-11.7909
▁कार्ट	-11.7909
▁वीर्य	-11.791
एट	-11.7912
लेर	-11.7915
▁लगाता	-11.7916
▁नोर्	-11.7917
▁अक्	-11.7924
▁छद्म	-11.7924
▁मुद्रण	-11.7926
त्ते	-11.7929
▁निर्देशों	-11.7929
▁फू	-11.793
▁बेट	-11.7934
▁नाईट	-11.7934
▁Republic	-11.7934
▁अपरिमेय	-11.7934
▁आश्वासन	-11.7934
▁दुर्योधन	-11.7934
▁पीपुल्स	-11.7934
▁high	-11.7934
▁अलंकरण	-11.7934
▁बद्रीनाथ	-11.7934
▁सुलतान	-11.7934
▁फोकस	-11.7935
▁अलार्म	-11.7935
▁वरीयता	-11.7935
ख्वाजा	-11.7935
▁तुम्हें	-11.7936
▁थापना	-11.7936
▁प्रखर	-11.7938
▁व्यवहारिक	-11.794
▁विक्टर	-11.794
लेखक	-11.7941
▁नॉर्वे	-11.7942
▁सक्रियता	-11.7942
आज	-11.7942
फु	-11.7943
▁69	-11.7944
▁सुनते	-11.7945
pp	-11.7948
▁दयाल	-11.7951
▁अगस्त्य	-11.7952
▁कागज़	-11.7953
लहर्स्ट	-11.7953
▁Ar	-11.7953
ड्यू	-11.7955
स्लिप	-11.7955
▁मिग	-11.7957
▁फ्रेड	-11.796
▁बढ़ाते	-11.7963
▁सामर्थ्य	-11.7965
▁मर्यादा	-11.7967
▁पाठशाला	-11.7968
▁पोर्टल	-11.7968
▁बन्दी	-11.797
ॅक	-11.7973
▁डेक	-11.7974
▁विलंब	-11.7975
ाइज	-11.7978
▁आसमान	-11.7978
ting	-11.7978
▁बाग़	-11.7982
▁5%	-11.7987
▁94	-11.7988
▁ड्रामा	-11.799
▁नाइ	-11.7991
तांत	-11.7998
स्म	-11.7999
▁सार्वभौम	-11.7999
िण	-11.7999
▁प्रादेश	-11.7999
▁इमाद	-11.8001
▁काॅमिक्स	-11.8001
▁रोमांटिक	-11.8001
▁लूब्रिकेंट	-11.8001
▁सिंड्रोम	-11.8001
पोरबंदर	-11.8001
▁निचला	-11.8001
▁उछाल	-11.8001
▁अंपायर	-11.8001
सराय	-11.8001
▁25°06′	-11.8001
▁इरादे	-11.8001
▁will	-11.8001
▁फ़िल्टर	-11.8001
▁किशोरावस्था	-11.8002
▁वारंगल	-11.8002
▁न्यायमूर्ति	-11.8002
▁यूईएफ	-11.8002
ata	-11.8002
▁हिप्पोकैम्पस	-11.8002
▁कीर्तिमान	-11.8003
▁रतन	-11.8003
▁पनामा	-11.8003
▁उसमे	-11.8004
वरा	-11.8005
▁ढाई	-11.8007
▁पढ़ते	-11.8008
▁ग्राफिक्स	-11.8008
सिप	-11.8009
▁डाट	-11.801
▁मुखर	-11.801
लाय	-11.8013
▁कठ	-11.8014
केन्द्र	-11.8014
फ़्ट	-11.8015
▁अचल	-11.8016
▁दर्ज़	-11.8018
ार्ट	-11.8019
त्यागपत्र	-11.802
विग	-11.8022
जगह	-11.8023
▁भाट	-11.8025
क्रेट	-11.8025
▁पहुंचते	-11.8026
▁रोजर	-11.8026
▁पढ	-11.803
शस्त्र	-11.803
▁विथ	-11.8032
lan	-11.8033
▁चंपा	-11.8034
▁रंगहीन	-11.8035
क्षय	-11.8035
▁उच्चतर	-11.8037
▁मानवाधिकार	-11.8037
▁Ja	-11.8038
form	-11.8038
▁पीली	-11.8039
▁अखबारों	-11.8042
बेर	-11.8043
▁दसवीं	-11.8044
हरण	-11.8047
▁करतीं	-11.8047
▁आधुनिकता	-11.805
CO	-11.8052
लियाँ	-11.8059
▁पाला	-11.806
वर्मन	-11.8061
▁बेग	-11.8062
▁घुम	-11.8064
वला	-11.8065
म्बी	-11.8065
नन्द	-11.8065
▁कुर्द	-11.8065
▁फिलिस्तीन	-11.8068
▁मैग्लेव	-11.8068
▁रैखिक	-11.8068
▁सुव्यवस्थित	-11.8068
▁इशारा	-11.8068
▁पुस्तिका	-11.8068
▁राघव	-11.8068
▁नागार्जुन	-11.8068
▁शतरंज	-11.8068
▁रजिस्टर	-11.8068
▁कुख्यात	-11.8068
▁साजिश	-11.8068
▁मनोरोग	-11.8069
▁पराक्रम	-11.8069
▁संतृप्त	-11.8069
▁उपद्रव	-11.8069
▁धनराशि	-11.8069
▁प्रशासित	-11.807
▁शूद्र	-11.807
▁पहनते	-11.8071
▁सीनियर	-11.8071
▁अस्पतालों	-11.8071
▁सिल्वर	-11.8072
▁कालान्तर	-11.8073
▁छवियों	-11.8075
▁सीरीज़	-11.8076
▁वी॰	-11.8076
▁आईसी	-11.8077
▁आवेग	-11.8077
▁गुरुवार	-11.8079
▁अर्पित	-11.808
विलास	-11.8081
▁मानकीकरण	-11.8082
▁विज	-11.8084
ैपिंग	-11.8088
▁वज़न	-11.8088
·	-11.8089
रासायनिक	-11.809
▁30%	-11.8093
▁वादक	-11.8093
किरण	-11.8095
▁संघटन	-11.8098
ंजन	-11.8102
▁हँस	-11.8104
▁ट्वेन्टी	-11.8105
▁रचनाएं	-11.8106
▁पुर्व	-11.8106
▁Bo	-11.8107
ान्तर	-11.8108
क्की	-11.8111
▁4000	-11.8112
▁रोट	-11.8113
▁31.	-11.8113
▁पालिका	-11.8113
▁नीली	-11.8115
▁एना	-11.8116
▁मिथक	-11.812
हृ	-11.8121
▁शान्त	-11.8121
kh	-11.8123
नन्दन	-11.8123
▁वय	-11.8123
▁कंठ	-11.8124
िस्टिक	-11.8129
▁सिवा	-11.8132
पल्ली	-11.8132
▁सच्चा	-11.8133
इयाँ	-11.8134
▁अर्बुद	-11.8136
▁फेडरेशन	-11.8136
▁बैडमिंटन	-11.8136
▁मेगाडेथ	-11.8136
▁विश्वामित्र	-11.8136
▁शल्क	-11.8137
▁महान्	-11.8137
▁महेन्द्र	-11.8137
▁विजयवाड़ा	-11.8138
▁शुरुवात	-11.8138
नाथन	-11.8138
ल्टी	-11.8141
▁बहू	-11.8141
.3%	-11.8141
मेटिक	-11.8142
▁अनशन	-11.8142
▁कंकाल	-11.8143
▁किट	-11.8144
▁लिन	-11.8144
▁पर्दा	-11.8145
▁ज्या	-11.8145
▁बाएँ	-11.8146
▁खुलना	-11.8149
थेन	-11.8151
▁सुखद	-11.8153
भौ	-11.8155
▁वानूआतू	-11.8155
▁सम्बन्धों	-11.8156
▁जिमी	-11.8158
▁प्रिंट	-11.8158
एसटी	-11.8159
▁झेल	-11.816
▁यात्राओं	-11.8163
▁फोर	-11.8164
▁रेकी	-11.8166
▁मामा	-11.8166
▁सड़कें	-11.8166
▁द्	-11.8167
▁मच्छर	-11.8168
तरा	-11.8168
▁नाड़ी	-11.8169
ूम	-11.817
डाइ	-11.817
▁अब्बास	-11.8172
amp	-11.8173
▁जगदीश	-11.8174
▁निरा	-11.8174
▁प्रपात	-11.8178
▁बिकने	-11.8179
▁मिड	-11.8179
टाल	-11.8179
▁अन्तः	-11.818
▁नाविक	-11.8181
ओन	-11.8182
त्त्व	-11.8182
रिल	-11.8184
nic	-11.8186
▁चूक	-11.8187
cal	-11.8188
त्रय	-11.8191
▁सरस	-11.8193
▁श्रृंखलाओं	-11.8197
▁ब्रोक	-11.8197
नाडा	-11.8198
रेंस	-11.82
▁अभय	-11.82
ट्टग्राम	-11.8204
▁during	-11.8204
▁किन्हीं	-11.8204
▁थलीसैंण	-11.8204
▁पर्यवेक्षण	-11.8204
▁पाउडर	-11.8204
▁बँगला	-11.8204
▁मॉरीशस	-11.8204
▁स्नायु	-11.8204
▁East	-11.8204
▁लिटिल	-11.8205
▁रंजक	-11.8205
▁शॉर्ट	-11.8205
▁जुडा	-11.8205
▁पुनर्वास	-11.8206
▁दक्कन	-11.8206
शियाई	-11.8207
▁दिलाया	-11.8208
▁अकार	-11.8209
▁उल्टा	-11.8215
▁जरुरी	-11.8215
▁2,000	-11.8216
बदल	-11.8223
खल	-11.8224
▁पिण्ड	-11.8224
सिद्धांत	-11.8228
कुश	-11.8228
राइड	-11.8229
▁तोप	-11.8233
भट्ट	-11.8235
▁tr	-11.8235
न्थ	-11.8235
▁हाथियों	-11.8237
साइ	-11.8238
ोच	-11.8241
चारी	-11.8243
▁ढके	-11.8247
▁बीजगणित	-11.8247
so	-11.8247
▁गरीबों	-11.825
▁लिय	-11.825
▁निशा	-11.825
nn	-11.8251
▁0071	-11.8252
पहल	-11.8258
▁बसु	-11.8261
बेकन	-11.8263
led	-11.8264
▁हास	-11.8264
डिन	-11.8266
way	-11.8266
▁स्टो	-11.8272
▁आणविक	-11.8272
▁एंड्रयू	-11.8272
▁जुलूस	-11.8272
▁ध्वन्यात्मक	-11.8272
▁प्रोडक्शन	-11.8272
▁यूट्यूब	-11.8272
▁फाइबर	-11.8272
▁सिनेमाघरों	-11.8272
▁अध्यादेश	-11.8272
▁प्रणेता	-11.8272
▁टुकड़ी	-11.8272
▁MSN	-11.8272
बार्किंग	-11.8272
▁निर्वात	-11.8273
▁तांबा	-11.8273
▁समकोण	-11.8273
▁may	-11.8273
▁अगरतला	-11.8274
▁हुसेन	-11.8274
▁जनजातीय	-11.8274
▁फिल्मांकन	-11.8276
▁बेड़े	-11.8276
ण्ण	-11.8276
▁1861	-11.8277
▁वर्दी	-11.8277
▁यथे	-11.8277
▁वर्जित	-11.8278
▁पुंज	-11.8279
▁लिंकन	-11.8279
▁निर्माणाधीन	-11.828
▁घटती	-11.8281
▁रगड़	-11.8281
▁ममता	-11.8282
अम	-11.8282
▁कतार	-11.8283
▁घटाने	-11.8283
रोल	-11.8283
aj	-11.8288
▁उदारवादी	-11.8291
▁समताप	-11.8296
▁स्पष्टीकरण	-11.8302
▁लेबर	-11.8303
▁चित	-11.8304
SO	-11.8305
मेन्ट	-11.8308
▁comp	-11.8308
▁बेकर	-11.8309
प्रचार	-11.8309
म्बु	-11.8309
▁रीड	-11.831
▁रसों	-11.8311
घोष	-11.8312
ुलर	-11.8312
▁अधीनता	-11.8314
ंका	-11.8318
▁मरा	-11.8318
▁राइन	-11.8319
▁लड़े	-11.8319
▁विभिन्	-11.8325
इंड	-11.8328
▁हिज	-11.833
▁विगत	-11.8332
▁ब्रु	-11.8332
▁स्कन्द	-11.8332
▁दिवा	-11.8333
्वेल	-11.8333
▁आचार्यों	-11.8338
▁अफवाह	-11.8339
▁एडवेंचर	-11.8341
▁तात्कालिक	-11.8341
▁न्यूज़ीलैंड	-11.8341
▁फैण्टम	-11.8341
▁मछलियाँ	-11.8341
▁मनोनीत	-11.8341
▁महानिदेशक	-11.8341
▁सिलसिला	-11.8341
▁उखाड़	-11.8341
▁सक्सेना	-11.8341
▁when	-11.8341
▁स्वैच्छिक	-11.8341
▁हुबली	-11.8341
▁बेक	-11.8342
▁मोर्चे	-11.8342
▁स्तनधारी	-11.8342
▁सेकेंड	-11.8342
▁मादक	-11.8342
▁प्रकोप	-11.8342
▁सम्बोधि	-11.8342
▁used	-11.8344
▁सडक	-11.8345
▁नोबल	-11.8346
▁विक्रेताओं	-11.8346
▁1885	-11.8347
▁रामचन्द्र	-11.8347
▁मनी	-11.8347
▁Vi	-11.8348
▁संस्थागत	-11.835
▁70%	-11.8352
▁एन॰	-11.8352
थिक	-11.8353
▁रीवा	-11.8354
▁पाव	-11.8355
र्रा	-11.8358
▁रेखाएँ	-11.8359
▁कीनिया	-11.836
▁सांसदों	-11.8362
मिनि	-11.8362
▁एकादशी	-11.8363
▁तुम्हारे	-11.8364
पाय	-11.8364
▁गली	-11.8364
ev	-11.8365
उत्	-11.8365
▁बरस	-11.8365
विष्णु	-11.8368
मुझे	-11.8368
एफए	-11.8369
ब्बा	-11.837
जीन	-11.8371
▁जिज	-11.8372
▁Ra	-11.8372
मपुर	-11.8376
5.5	-11.8377
▁प्रेमिका	-11.8377
योजित	-11.8378
▁काष्ठ	-11.8378
बीएस	-11.8379
▁जाओ	-11.8381
▁दृष्ट	-11.8381
▁ब्रॉ	-11.8382
गेल	-11.8382
▁साओ	-11.8389
hal	-11.8389
▁मचा	-11.8389
ोँ	-11.839
▁बुर	-11.8392
▁डायल	-11.8394
पॉ	-11.8394
▁कैंप	-11.8395
पट्ट	-11.8396
श्रम	-11.8397
▁ग्राफिक	-11.8397
वाही	-11.8397
▁पालक	-11.84
हं	-11.8403
▁ऑर्	-11.8403
▁ओमान	-11.8405
▁क्रोम	-11.8409
▁number	-11.8411
▁आख़िर	-11.8411
▁घुसपैठ	-11.8411
▁जिज्ञासा	-11.8411
▁डिज्नी	-11.8411
▁पर्यवेक्षक	-11.8411
▁भिकियासै	-11.8411
▁रग्बी	-11.8411
▁इजरायल	-11.8411
▁उस्ताद	-11.8411
▁मदिरा	-11.8411
▁फिलहाल	-11.8411
▁NBC	-11.8411
▁होल्कर	-11.8411
▁आच्छादित	-11.8412
िज़्म	-11.8413
▁तिथियाँ	-11.8414
▁विंध्य	-11.8414
▁5,000	-11.8415
▁1894	-11.8415
▁1893	-11.8415
▁मंगलवार	-11.8415
▁1856	-11.8417
▁मेहर	-11.8419
▁दशहरा	-11.842
-13	-11.8423
नियन	-11.8423
रूम	-11.8423
कई	-11.8424
ैक्ट	-11.8424
▁dis	-11.8424
▁सांग	-11.8425
▁गुणात्मक	-11.8427
श्वर	-11.8428
मास्टर	-11.8431
▁जिनपर	-11.8431
▁मुस	-11.8431
ख्य	-11.8432
▁25%	-11.8433
शून्य	-11.8439
▁लड	-11.844
▁गोबर	-11.844
ाधिकारी	-11.8441
▁सरीसृप	-11.8444
low	-11.8445
▁मठों	-11.8445
▁फेयर	-11.8446
▁विनिर्देश	-11.8447
्खा	-11.8448
▁प्रस	-11.8449
▁खींचने	-11.845
▁अकेल	-11.8452
▁श्रेष्ठता	-11.8453
लॉ	-11.8453
AC	-11.8455
▁एकाधिकार	-11.8458
du	-11.8459
ुड़ी	-11.8463
्स्	-11.8464
ner	-11.8469
▁इंद्रियों	-11.8469
स्टेप	-11.8472
▁Ad	-11.8474
▁शीघ्रता	-11.8474
▁सभ्य	-11.8475
जै	-11.8475
▁नियोक्ता	-11.8477
▁परदे	-11.8477
▁त्रिनिदाद	-11.8481
▁मैग्नीशियम	-11.8481
▁such	-11.8481
▁कोणार्क	-11.8481
▁तब्दील	-11.8481
▁दूषित	-11.8481
▁फॉण्ट	-11.8481
▁फेरारी	-11.8481
▁डायोड	-11.8481
▁प्रतिभाशाली	-11.8481
▁पथरी	-11.8481
▁बुधवार	-11.8483
▁बल्ब	-11.8483
▁रकम	-11.8484
▁1891	-11.8484
व्यक्ति	-11.8485
▁सिद्धार्थ	-11.8485
▁मेज	-11.8485
▁सजातीय	-11.8486
▁प्रतिरूपण	-11.8486
▁नीलामी	-11.8486
.9%	-11.8486
▁1898	-11.8486
िने	-11.8487
▁प्रशासकीय	-11.8487
▁नगरीय	-11.8488
▁जोरदार	-11.8489
▁प्रत्य	-11.849
▁बलुआ	-11.8492
▁क्रूर	-11.8493
▁गड़बड़ी	-11.8494
शल	-11.8496
▁वाइ	-11.8496
▁बर्दी	-11.8496
ुइया	-11.8503
-9	-11.8503
▁बियर	-11.8509
▁फ्रै	-11.8509
ग़ान	-11.851
निर्भर	-11.851
▁हजारे	-11.8512
ेरियम	-11.8513
हाट	-11.8515
▁मानदंड	-11.8518
▁जप	-11.8518
▁ट्रू	-11.8518
pan	-11.8519
▁लाती	-11.8521
▁ट्रक	-11.8521
▁Se	-11.8523
भो	-11.8526
▁मम	-11.8526
पीएस	-11.8527
बली	-11.8528
योन	-11.8529
▁सांता	-11.8531
कली	-11.8532
▁रॉस	-11.8533
▁उठने	-11.8535
▁शूल	-11.8539
ज्या	-11.854
आय	-11.8541
▁दीव	-11.8543
नियर	-11.8544
▁where	-11.8551
▁रिचार्डस	-11.8551
▁कैपिटल	-11.8551
भयभीत	-11.8551
▁संकोच	-11.8551
▁क्रोमियम	-11.8551
▁फोटोग्राफी	-11.8551
▁दावों	-11.8552
▁भागीदार	-11.8553
▁स्थलाकृति	-11.8553
▁हिमलर	-11.8554
प्पल	-11.8554
▁फिल्मफेयर	-11.8555
ादित्य	-11.8556
▁पकाने	-11.8556
▁चमकदार	-11.8556
▁कार्यक्षमता	-11.8557
▁बसों	-11.8557
दाय	-11.8557
▁गुरुकुल	-11.8558
त्तु	-11.8561
▁शत्रुओं	-11.8562
▁प्रजापति	-11.8564
ंकर	-11.8565
0°	-11.8565
▁वंशजों	-11.8567
▁ओशन	-11.8568
▁बदलना	-11.8569
▁एमए	-11.8572
▁भग	-11.8576
दृश्य	-11.8577
OS	-11.8578
▁मार्को	-11.8578
तांत्रिक	-11.8578
▁मास्को	-11.8581
टाइट	-11.8582
सिव	-11.8583
प्रमुख	-11.8583
हिन्दू	-11.8584
▁अक	-11.8585
▁पत्तन	-11.8588
ade	-11.8588
eg	-11.859
▁सिरा	-11.859
▁तेरा	-11.859
द्वारा	-11.859
ायण	-11.8591
5°54′	-11.8593
▁समझकर	-11.8595
▁भूरा	-11.8595
▁अंकीय	-11.8596
▁Unit	-11.8598
▁Pro	-11.8598
▁पट्टिका	-11.8599
सरकारी	-11.8599
ावत	-11.8599
▁02	-11.8599
▁बेसल	-11.8602
▁जानकर	-11.8603
▁हेस	-11.8604
रौ	-11.8605
▁चिह्नों	-11.8606
क्रे	-11.8609
व्या	-11.8611
क्षार	-11.8611
डस	-11.8612
▁ताओ	-11.8612
▁कुंज	-11.8612
▁इस्	-11.8613
▁रिया	-11.8614
▁विशद	-11.8614
्पर	-11.8615
▁निपटा	-11.8618
ूरु	-11.8619
▁चार्टर	-11.8621
रिज	-11.8621
▁अकादमिक	-11.8622
▁इब्राहिम	-11.8622
▁ओड़िशा	-11.8622
▁फिलाडेल्फिया	-11.8622
▁मुठभेड़	-11.8622
▁ओबामा	-11.8622
▁रिश्तों	-11.8622
▁ऑटोमोबाइल	-11.8622
▁एलेक्ट्र	-11.8622
▁हेमचंद्र	-11.8622
▁सचेत	-11.8622
▁चाइना	-11.8623
▁निलंबित	-11.8623
▁आंकड़ा	-11.8623
▁ज्वाला	-11.8623
▁राष्ट्रकूट	-11.8623
▁संशय	-11.8624
▁महाकल्प	-11.8624
▁खिलाडी	-11.8624
▁name	-11.8626
▁पहुंचता	-11.8626
▁परोक्ष	-11.8627
▁खदान	-11.8629
▁आरेख	-11.8631
▁नोड	-11.8631
mu	-11.8634
हैं	-11.8635
ैप	-11.8636
▁कासिम	-11.8637
▁बँध	-11.8638
क्षमता	-11.864
▁रिवाज	-11.864
▁पैड	-11.8641
हेड	-11.8641
न्दर	-11.8642
▁===	-11.8647
ुरी	-11.8648
हास	-11.8651
▁मानों	-11.8653
▁हीलियम	-11.8653
▁बंदरगाहों	-11.8656
ार्थी	-11.8658
out	-11.8658
फार्म	-11.866
तिहाई	-11.8661
▁अरा	-11.8661
▁स्केल	-11.8664
▁हाय	-11.867
▁प्रोफ़ेसर	-11.8673
8,000	-11.8677
दौ	-11.8678
पेंज	-11.8678
चो	-11.8678
लोर	-11.8679
लेक्स	-11.8679
▁दुर्भाग्य	-11.868
▁घुमा	-11.8682
ेरियन	-11.8683
▁हरेक	-11.8685
▁चालित	-11.8686
▁संभाली	-11.8689
▁बेचे	-11.869
▁चिन्ता	-11.8691
,400	-11.8691
नाद	-11.8692
कारगर	-11.8693
▁खिंच	-11.8693
▁क्रियान्वयन	-11.8693
▁डेवलपमेंट	-11.8693
▁म्यूजियम	-11.8693
▁अशफ़ाक	-11.8693
▁जस्टिस	-11.8693
▁टुकड़ा	-11.8693
▁फ़्लेमि	-11.8693
▁बैंग	-11.8693
▁पुनरावृत्ति	-11.8693
▁उन्नयन	-11.8693
▁प्रेषित	-11.8694
▁सूरीनाम	-11.8694
▁चंपारण	-11.8694
मिनिस्टर	-11.8694
▁अवज्ञा	-11.8694
▁संवहन	-11.8694
▁डिंभ	-11.8694
▁सर्वसम्मत	-11.8694
▁लाभप्रद	-11.8695
ाक्ष	-11.8695
▁टुडे	-11.8695
SA	-11.8696
▁साइमन	-11.8696
▁तलहट	-11.8697
▁कूच	-11.8697
स्कोप	-11.8697
▁त्रिपुर	-11.8697
▁सिक्का	-11.8698
▁प्रदत्त	-11.8699
▁पत्रकारों	-11.8699
▁प्रोटीनों	-11.8699
▁उभरते	-11.8701
▁विधाओं	-11.8702
▁फलतः	-11.8703
▁धड़कन	-11.8703
▁साहित्यकारों	-11.8703
ser	-11.8704
▁निर्भरता	-11.8705
hu	-11.8705
▁मेनन	-11.8705
कुम	-11.8706
▁कॉनन	-11.8706
सीम	-11.8708
विल्सड	-11.8708
एयर	-11.8708
ल्फ़	-11.8708
▁सबका	-11.8709
▁पंचमी	-11.871
▁गोरी	-11.8711
संबंधी	-11.8713
▁उत्साहित	-11.8713
▁तर्ज	-11.8714
लवर्थ	-11.8714
▁सहाय	-11.8715
▁07	-11.8718
▁रिलायंस	-11.8719
▁जमींदारों	-11.872
▁द्व	-11.8722
▁विश्लेषक	-11.8722
▁चित्रशाला	-11.8724
सुरी	-11.8728
कश्मीर	-11.8728
▁डब	-11.8728
दण्ड	-11.8728
▁j	-11.873
▁15%	-11.8731
▁87	-11.8732
ue	-11.8733
बाजार	-11.8733
▁पंत	-11.8734
▁एरिया	-11.8734
▁संदेशों	-11.8739
▁मिस्री	-11.8741
साइक्ल	-11.8741
▁अंदाज	-11.8742
तौर	-11.8747
–16	-11.8748
क्साइड	-11.8749
गने	-11.875
▁सुधा	-11.8751
▁ग्रो	-11.8754
af	-11.8755
▁असुर	-11.8756
▁जिन्हे	-11.8757
य्य	-11.8761
▁शुद्धता	-11.8765
▁George	-11.8765
▁कसौटी	-11.8765
▁मेसोपोटामिया	-11.8765
▁समशीतोष्ण	-11.8765
बल्तिस्तान	-11.8765
▁इज़रायल	-11.8765
▁एचसीवी	-11.8765
▁मांसपेशी	-11.8765
आं	-11.8765
▁विलायक	-11.8766
▁एडिसन	-11.8766
▁स्ट्रिप	-11.8767
▁अन्ध	-11.8767
▁प्रबुद्ध	-11.8767
▁महेंद्र	-11.8767
▁शिवा	-11.8767
▁पिथौरागढ़	-11.8767
▁मध्यस्थ	-11.8767
▁कुंआ	-11.8768
▁आभार	-11.8768
▁पीएचडी	-11.8768
▁अठारहवीं	-11.8769
▁सारनाथ	-11.877
▁वीज़ा	-11.8771
▁दिखलाई	-11.8771
▁1899	-11.8771
▁मोशन	-11.8772
बियन	-11.8773
गोपाल	-11.8774
▁सन्तान	-11.8775
▁जटा	-11.8778
▁भाषावैज्ञानिक	-11.8779
धो	-11.8781
दंड	-11.8782
▁कुक	-11.8783
▁सिस	-11.8786
▁निकालते	-11.8787
हना	-11.8787
▁इंजीनियरों	-11.8788
इट्स	-11.8788
बहुत	-11.8789
▁गिरते	-11.8791
▁कॉलेजों	-11.8793
▁प्रव	-11.8793
▁रोमांच	-11.8793
▁बैरल	-11.8801
व्यापार	-11.8801
पैर	-11.8802
▁आइसलैण्ड	-11.8806
▁पूँजीवाद	-11.8806
▁खल	-11.8807
गौ	-11.8807
▁मॉल्ड	-11.8808
▁कोंकण	-11.8809
▁संयोजक	-11.881
स्या	-11.881
▁उदा	-11.8812
▁उभरे	-11.8814
▁आबाद	-11.8816
▁New	-11.8817
▁ऋणात्मक	-11.8817
cent	-11.8817
DA	-11.8818
ियास	-11.8819
▁पर्दे	-11.882
▁सुनी	-11.8821
▁बिखरे	-11.8825
▁प्रमाणों	-11.8828
्निग	-11.8832
▁बंटा	-11.8832
हाइ	-11.8836
▁गाये	-11.8837
वंड्सवर्थ	-11.8838
▁अनुमोदित	-11.8838
▁निर्वासित	-11.8838
▁नमस्कार	-11.8838
▁डाउनटाउन	-11.8838
▁समाविष्ट	-11.8838
▁नाइट्रेट	-11.8838
▁इन्टरनेट	-11.8838
▁कोलम्बिया	-11.8838
▁इसराइल	-11.8839
▁अहीर	-11.8839
नया	-11.8839
पिनर	-11.8839
▁बहुराष्ट्रीय	-11.8841
वर्गीय	-11.8841
काट	-11.8842
▁अवकल	-11.8842
▁जीविका	-11.8843
▁1884	-11.8843
▁रुपया	-11.8843
▁गिरफ्तारी	-11.8843
▁अमरनाथ	-11.8844
दीप्ति	-11.8845
▁छाती	-11.8847
▁ठण्ड	-11.8847
नजारा	-11.8847
वित्त	-11.8848
▁मुक्केबाजी	-11.8848
▁खरे	-11.8848
▁Su	-11.885
▁उत्कर्ष	-11.8851
्मिक	-11.8851
▁यांग	-11.8852
▁संधियों	-11.8852
विदेश	-11.8853
▁अमीनो	-11.8853
▁कैमरों	-11.8855
▁हटने	-11.8857
▁हेडगेवार	-11.8857
िन्	-11.8858
राज़	-11.8858
▁शिल्पकार	-11.8859
्किन	-11.8859
▁हाजीपुर	-11.8863
ष्य	-11.8864
▁कार्गो	-11.8866
फ़ो	-11.887
▁विनाशकार	-11.887
▁वैधता	-11.8871
▁कहावत	-11.8875
▁कल्	-11.8875
बंधु	-11.8875
▁लोर	-11.8875
▁हराने	-11.888
▁यूक्रेनी	-11.8883
val	-11.8883
▁1200	-11.8884
▁जया	-11.8886
कुं	-11.8887
ंगटन	-11.8888
▁कृषक	-11.8891
▁पट्टे	-11.8891
▁विकलांग	-11.8893
▁नियाम	-11.8893
7,000	-11.8895
ुएल	-11.8896
संस्कृति	-11.8897
▁द्रव्यों	-11.8897
▁सिंघ	-11.8898
▁पश्	-11.8898
▁कोंकणी	-11.8899
▁se	-11.89
डेगन	-11.89
माई	-11.8902
होल	-11.8904
▁मूक	-11.8908
▁बैरी	-11.8909
▁अंड	-11.8909
▁सिंगल	-11.891
▁नकदी	-11.891
▁जामा	-11.891
▁जमाल	-11.891
फ़ुलहम	-11.8911
▁प्रोटेस्टेंट	-11.8911
▁फ़्रान्सीसी	-11.8911
▁ब्राउजर	-11.8911
▁ऐश्वर्य	-11.8911
▁स्वादिष्ट	-11.8911
▁छुटकारा	-11.8911
▁अल्फ्रेड	-11.8911
▁प्लाज्मा	-11.8911
▁अहंकार	-11.8911
▁फ्रायड	-11.8911
▁खिसक	-11.8911
▁वेदव्यास	-11.8911
▁ग्रेनेड	-11.8911
▁श्रीवास्तव	-11.8912
▁बांगर	-11.8912
▁सारांश	-11.8912
▁स्टाइल	-11.8913
▁बघेल	-11.8913
▁लुइस	-11.8914
▁कड़ियों	-11.8915
टॉट	-11.8916
{1}	-11.8916
वर्मन्	-11.8916
▁चट्टानें	-11.8917
▁व्यवसायी	-11.8917
▁त्रिकोणीय	-11.8919
▁मग	-11.8921
▁सरदारों	-11.8923
▁निर्णयों	-11.8923
▁एमी	-11.8925
▁रीस	-11.8927
▁छठा	-11.8929
म्बेथ	-11.8933
सभी	-11.8937
बास	-11.8938
▁थीम	-11.894
▁सांप्रदायिक	-11.894
▁धमाके	-11.8941
▁240	-11.8942
▁जायें	-11.8947
लॉग	-11.8953
▁दीन	-11.8954
मोस	-11.8955
तुर्क	-11.8955
▁अल्पसंख्यकों	-11.8961
मला	-11.8962
▁मनाई	-11.8962
oli	-11.8962
लाईट	-11.8963
▁time	-11.8963
▁पत्	-11.8965
ou	-11.8966
नागा	-11.8967
शुदा	-11.8969
णे	-11.8975
▁वृहद	-11.8977
ेद	-11.8978
स्थाई	-11.898
▁रसूल	-11.898
ांत्र	-11.8981
ढ़ा	-11.8982
▁बिलार	-11.8983
▁इक्विटी	-11.8984
▁गंगोलीहाट	-11.8984
▁भागीरथी	-11.8984
▁मिनियापोलिस	-11.8984
▁रुकावट	-11.8984
▁वैश्वीकरण	-11.8984
▁विखंडन	-11.8984
▁मॉड्यूल	-11.8984
▁प्रोटोटाइप	-11.8984
▁वेल्लोर	-11.8984
▁नेहरु	-11.8984
▁पिकनिक	-11.8985
▁लूथर	-11.8985
▁गन्ने	-11.8985
▁माइनर	-11.8985
क्ली	-11.8985
▁प्लेन	-11.8986
king	-11.8986
▁उड़ाने	-11.8987
▁हिसार	-11.8987
▁बिठा	-11.8988
▁सीढ़ी	-11.8988
ट्टु	-11.8988
▁अशांति	-11.8989
▁1887	-11.899
ेंड	-11.899
▁मी॰	-11.899
▁मेरिल	-11.899
▁क्रीम	-11.8991
▁उन्मुख	-11.8992
▁दाता	-11.8992
▁ढक	-11.8992
मकसद	-11.8994
▁तैराकी	-11.8995
शियाना	-11.8995
▁विभिन्नता	-11.8996
जियांग	-11.8996
▁पारे	-11.8996
8.5	-11.8996
म्पा	-11.8997
▁उतारा	-11.8998
ैव	-11.8999
MI	-11.9001
रियाँ	-11.9002
्दि	-11.9002
▁बारहवीं	-11.9002
▁शिक्षाओं	-11.9004
▁अय	-11.9007
OM	-11.9008
▁वत्स	-11.9008
▁खींचा	-11.901
युगीन	-11.9013
क्षी	-11.9014
▁सोपान	-11.9015
▁रामचरितमानस	-11.9015
▁डेम	-11.9017
▁अर्थव्यवस्थाओं	-11.9019
▁चैन	-11.902
▁साम्य	-11.902
मल्ल	-11.9021
▁अनुवादक	-11.9022
गुंड	-11.9023
उन्होंने	-11.9025
▁टेक्स्ट	-11.9027
▁मिर्ज़ा	-11.9029
▁पूँजी	-11.9029
▁रोमांचक	-11.903
▁मोटर्स	-11.9032
▁प्रिया	-11.9033
▁दीर्घा	-11.9034
गरपुर	-11.9036
▁साकार	-11.9037
जम	-11.9038
मेरी	-11.9038
ञ	-11.9043
sk	-11.9044
हीथ	-11.9047
▁लैम्ब	-11.9049
रेज	-11.905
राध	-11.9051
िंक	-11.9053
▁कप्तानी	-11.9053
▁चुंबक	-11.9054
▁साम्राज्यवादी	-11.9055
ौटा	-11.9055
▁बूट	-11.9056
▁मक्खन	-11.9058
▁नगण्य	-11.9058
▁पार्थिव	-11.9059
▁सपने	-11.9059
▁बर्बरीक	-11.9059
▁खतरों	-11.9059
▁रूपांतर	-11.9059
▁जोरहाट	-11.9059
▁कस्टम	-11.9059
▁मार्वल	-11.9059
वण	-11.906
▁पृथक्करण	-11.906
be	-11.9061
▁खिलजी	-11.9064
▁दवाएं	-11.9066
▁श्रीधर	-11.9067
MA	-11.9069
▁बुराई	-11.907
▁हस्तियों	-11.9071
कास्ट	-11.9071
▁स्ट्रोक	-11.9074
▁किलों	-11.9075
▁यातना	-11.9075
▁विमानन	-11.9077
्युल	-11.9077
▁फ़ॉर	-11.9081
▁गम	-11.9081
▁रामेश्वरम	-11.9081
▁फिलिप्स	-11.9082
2%	-11.9083
▁जाम	-11.9085
▁खंडवा	-11.9087
▁खोद	-11.9094
▁इवान	-11.9095
▁उनमे	-11.9096
स्वरुप	-11.91
डोन	-11.9101
विन्यास	-11.9101
▁किन	-11.9101
▁निज	-11.9105
tre	-11.9107
rs	-11.9107
यज्ञ	-11.9108
▁समे	-11.9109
बानी	-11.911
gan	-11.9114
ादपुर	-11.9116
▁123	-11.9119
बढ़	-11.9119
▁चीर	-11.9121
▁कहां	-11.9121
▁भवानी	-11.9121
अक्ष	-11.9123
▁450	-11.9123
CC	-11.9124
▁उदासीन	-11.9124
▁सूती	-11.9124
▁संगीतकारों	-11.9125
यापन	-11.9126
ष्म	-11.9126
गड़	-11.9127
वान्	-11.9131
▁इल्तुतमिश	-11.9133
▁एविएशन	-11.9133
▁काठमांडू	-11.9133
▁गलनांक	-11.9133
▁फिलीपींस	-11.9133
▁डेस्कटॉप	-11.9133
▁बलूचिस्तान	-11.9133
▁मैकबेथ	-11.9133
▁under	-11.9133
▁गूढ़	-11.9133
▁श्राप	-11.9133
▁सईद	-11.9134
▁यूटीसी	-11.9134
▁शाहरुख	-11.9134
▁सम्मिश्रण	-11.9134
▁बाइबल	-11.9134
▁पटनायक	-11.9134
▁वाइल्ड	-11.9135
▁डॉक्टरेट	-11.9135
▁बनारसी	-11.9136
▁अंकन	-11.9138
▁छोड़ी	-11.9138
▁कटाव	-11.9138
▁डॉग्स	-11.9138
▁दादी	-11.9138
▁महायान	-11.9138
▁मारक	-11.9139
▁00720	-11.9139
▁स्पिन	-11.9139
समा	-11.914
▁मारकर	-11.9141
▁छिप	-11.9142
▁ड्रैगन	-11.9142
▁प्रेमियों	-11.9143
बेस	-11.9143
▁करवाई	-11.9143
▁इलेक्ट्रिक	-11.9144
▁अव्यवस्था	-11.9146
टिप	-11.9147
दिश	-11.9147
▁नाथू	-11.9148
▁दंगे	-11.9149
▁लगायी	-11.915
▁2500	-11.915
▁क्रोधित	-11.9151
▁अधिकांशत	-11.9151
▁अँग्रेजी	-11.9154
कोटि	-11.9156
लियाई	-11.9156
▁लौटते	-11.9158
युनि	-11.9158
▁मात्रात्मक	-11.9158
▁बुंदेलखंड	-11.9159
▁CD	-11.9163
▁ढ़	-11.9166
▁स्टैंड	-11.9168
▁उत	-11.9169
कर्ष	-11.9169
▁कराये	-11.917
ायड	-11.917
▁विच्छेद	-11.9174
▁खुलने	-11.9176
सोहो	-11.9179
प्राकृतिक	-11.9179
hen	-11.918
ज़ल	-11.9182
स्टाइन	-11.9184
लेटन	-11.9185
ॉल्ट	-11.9192
▁युक्तियों	-11.9192
▁हां	-11.9194
▁Da	-11.9195
ईसी	-11.9196
▁द्वारका	-11.9196
▁हीरे	-11.9197
▁छापा	-11.9197
ft	-11.9198
▁पूर्णता	-11.92
ढे	-11.9203
▁कूप	-11.9204
▁24.	-11.9205
▁इजाज	-11.9208
▁century	-11.9208
▁three	-11.9208
▁इंस्टिट्यूट	-11.9208
▁इकाइयाँ	-11.9208
▁गर्भाधान	-11.9208
▁शौर्य	-11.9208
▁अस्थमा	-11.9208
▁सज्जन	-11.9208
▁फ़िलिपीन्ज़	-11.9208
cause	-11.9209
▁क्लाइंट	-11.9209
▁पाँव	-11.9209
▁मैक्सिको	-11.9209
ोन्मुख	-11.9209
▁अतिक्रमण	-11.9209
▁मीट्रिक	-11.9209
▁स्मार्ट	-11.921
▁फिल्टर	-11.921
▁राजपूताना	-11.921
स्थली	-11.921
▁गन्ना	-11.9211
▁सैदपुर	-11.9213
बतपुर	-11.9213
हों	-11.9213
▁शहद	-11.9214
उद्दीन	-11.9214
ल्लि	-11.9215
▁एमएस	-11.9215
▁घिस	-11.9216
कास	-11.9217
▁महंगे	-11.9218
▁बॉस	-11.9219
िले	-11.9219
tes	-11.9221
अद	-11.9222
▁नलियों	-11.9223
▁जिन्होनें	-11.9225
क्लैप	-11.9228
▁750	-11.9229
▁15.	-11.923
ject	-11.9231
▁मनीष	-11.9231
▁जन्मस्थान	-11.9235
▁प्रभा	-11.9236
▁ब्रॉड	-11.9236
ट्रोप	-11.9237
ौनी	-11.9239
भुज	-11.9242
यात	-11.9242
िलबर्न	-11.9243
▁रेगिस्तानी	-11.9244
▁BM	-11.9244
झ़	-11.9249
-30	-11.925
▁आर्यन	-11.9251
काशी	-11.9252
तिथि	-11.9254
▁विधिवत	-11.9257
पस	-11.926
शय	-11.9262
7°01′	-11.9263
▁जमी	-11.9264
▁स्पोर्ट	-11.9265
हैमर	-11.9265
नोर	-11.9267
▁शीतकाल	-11.9269
विशम	-11.927
▁बहार	-11.927
▁आइज़	-11.927
▁जड़ी	-11.9271
काश	-11.9271
र्ली	-11.9273
ट्विक	-11.9273
ंटी	-11.9274
श्व	-11.9276
डाय	-11.9277
ोलॉजी	-11.9278
▁अन्यत्र	-11.928
▁रघु	-11.9281
विम्बलडन	-11.9284
▁इम्फाल	-11.9284
▁गिरफ़्तार	-11.9284
▁ज्यामितीय	-11.9284
▁तम्बाकू	-11.9284
▁प्रोटेस्टैंट	-11.9284
▁सफदरजंग	-11.9284
▁ट्यूनीशिया	-11.9284
▁उभय	-11.9284
▁झरना	-11.9284
▁तूफ़ान	-11.9284
▁घेराबंदी	-11.9284
▁नौकरशाही	-11.9284
▁पादरियों	-11.9284
▁वायरलेस	-11.9284
▁ज़िलों	-11.9284
▁चूहों	-11.9284
▁बर्बाद	-11.9284
▁most	-11.9285
क्रॉयड	-11.9285
▁कुपोषण	-11.9286
▁बोलीविया	-11.9286
▁सिखाया	-11.9286
▁स्पीड	-11.9287
साउथॉल	-11.9287
▁सीकर	-11.9287
▁वविद्यालय	-11.9289
मां	-11.929
ंकन	-11.929
रिय	-11.929
▁1875	-11.929
शेखर	-11.9296
▁बाधाओं	-11.9297
छे	-11.9297
▁60%	-11.9297
बलपुर	-11.9298
▁इंटेल	-11.9299
▁दैवी	-11.9299
िटर	-11.93
▁प्रतियों	-11.9303
▁निः	-11.9306
ाटा	-11.9306
स्तो	-11.9307
▁कारणवश	-11.9308
विदों	-11.9308
व्यापी	-11.9309
▁6000	-11.9309
ेसी	-11.931
▁रहनेवाले	-11.931
▁उलझ	-11.9311
▁अंडा	-11.9315
▁बीबी	-11.9318
50,000	-11.9318
ियाना	-11.9319
सोन	-11.9323
II	-11.9325
250	-11.9325
sum	-11.933
▁ग़ज	-11.9331
.2%	-11.9332
▁Or	-11.9332
अर्थशास्त्र	-11.9332
▁तैर	-11.9334
लार	-11.9334
▁सोर	-11.9335
▁पाँचवीं	-11.9335
▁पेशियों	-11.9338
▁लॉरेंस	-11.934
हेंड	-11.9341
्डेन	-11.9343
▁वेन	-11.9346
4.	-11.9347
▁क्यु	-11.9347
▁135	-11.9347
▁रति	-11.9348
▁लिहाज	-11.9351
मिता	-11.9351
▁अभिजन	-11.9353
▁चिम	-11.9358
▁पाटलिपुत्र	-11.936
▁फ़ॉर्मूला	-11.936
▁बोत्सवाना	-11.936
▁यीशु	-11.936
▁प्लेटफार्म	-11.9361
▁अपोलो	-11.9361
▁रिटर्न	-11.9361
▁तालिबान	-11.9361
पैडिंगटन	-11.9362
▁गोडसे	-11.9362
[...]
